{
  "version": "1.0",
  "truncation": {
    "direction": "Right",
    "max_length": 2048,
    "strategy": "LongestFirst",
    "stride": 0
  },
  "padding": {
    "strategy": "BatchLongest",
    "direction": "Right",
    "pad_to_multiple_of": null,
    "pad_id": 2,
    "pad_type_id": 0,
    "pad_token": "[PAD]"
  },
  "added_tokens": [
    {
      "id": 0,
      "content": "[CLS]",
      "single_word": false,
      "lstrip": false,
      "rstrip": false,
      "normalized": false,
      "special": true
    },
    {
      "id": 1,
      "content": "[SEP]",
      "single_word": false,
      "lstrip": false,
      "rstrip": false,
      "normalized": false,
      "special": true
    },
    {
      "id": 2,
      "content": "[PAD]",
      "single_word": false,
      "lstrip": false,
      "rstrip": false,
      "normalized": false,
      "special": true
    },
    {
      "id": 3,
      "content": "[UNK]",
      "single_word": false,
      "lstrip": false,
      "rstrip": false,
      "normalized": false,
      "special": true
    },
    {
      "id": 4,
      "content": "[MASK]",
      "single_word": false,
      "lstrip": false,
      "rstrip": false,
      "normalized": false,
      "special": true
    },
    {
      "id": 5,
      "content": "[QUERY]",
      "single_word": false,
      "lstrip": false,
      "rstrip": false,
      "normalized": false,
      "special": true
    },
    {
      "id": 6,
      "content": "[CATEG]",
      "single_word": false,
      "lstrip": false,
      "rstrip": false,
      "normalized": false,
      "special": true
    },
    {
      "id": 7,
      "content": "[BSNS_VRTCL]",
      "single_word": false,
      "lstrip": false,
      "rstrip": false,
      "normalized": false,
      "special": true
    },
    {
      "id": 8,
      "content": "[TITLE]",
      "single_word": false,
      "lstrip": false,
      "rstrip": false,
      "normalized": false,
      "special": true
    },
    {
      "id": 9,
      "content": "[SUB_TITLE]",
      "single_word": false,
      "lstrip": false,
      "rstrip": false,
      "normalized": false,
      "special": true
    },
    {
      "id": 10,
      "content": "[DESC]",
      "single_word": false,
      "lstrip": false,
      "rstrip": false,
      "normalized": false,
      "special": true
    },
    {
      "id": 11,
      "content": "[ASPECT]",
      "single_word": false,
      "lstrip": false,
      "rstrip": false,
      "normalized": false,
      "special": true
    },
    {
      "id": 12,
      "content": "[REVIEW]",
      "single_word": false,
      "lstrip": false,
      "rstrip": false,
      "normalized": false,
      "special": true
    },
    {
      "id": 13,
      "content": "[UNUSED00]",
      "single_word": false,
      "lstrip": false,
      "rstrip": false,
      "normalized": false,
      "special": true
    },
    {
      "id": 14,
      "content": "[UNUSED01]",
      "single_word": false,
      "lstrip": false,
      "rstrip": false,
      "normalized": false,
      "special": true
    },
    {
      "id": 15,
      "content": "[UNUSED02]",
      "single_word": false,
      "lstrip": false,
      "rstrip": false,
      "normalized": false,
      "special": true
    },
    {
      "id": 16,
      "content": "[UNUSED03]",
      "single_word": false,
      "lstrip": false,
      "rstrip": false,
      "normalized": false,
      "special": true
    },
    {
      "id": 17,
      "content": "[UNUSED04]",
      "single_word": false,
      "lstrip": false,
      "rstrip": false,
      "normalized": false,
      "special": true
    },
    {
      "id": 18,
      "content": "[UNUSED05]",
      "single_word": false,
      "lstrip": false,
      "rstrip": false,
      "normalized": false,
      "special": true
    },
    {
      "id": 19,
      "content": "[UNUSED06]",
      "single_word": false,
      "lstrip": false,
      "rstrip": false,
      "normalized": false,
      "special": true
    },
    {
      "id": 20,
      "content": "[UNUSED07]",
      "single_word": false,
      "lstrip": false,
      "rstrip": false,
      "normalized": false,
      "special": true
    },
    {
      "id": 21,
      "content": "[UNUSED08]",
      "single_word": false,
      "lstrip": false,
      "rstrip": false,
      "normalized": false,
      "special": true
    },
    {
      "id": 22,
      "content": "[UNUSED09]",
      "single_word": false,
      "lstrip": false,
      "rstrip": false,
      "normalized": false,
      "special": true
    },
    {
      "id": 23,
      "content": "[UNUSED10]",
      "single_word": false,
      "lstrip": false,
      "rstrip": false,
      "normalized": false,
      "special": true
    },
    {
      "id": 24,
      "content": "[UNUSED11]",
      "single_word": false,
      "lstrip": false,
      "rstrip": false,
      "normalized": false,
      "special": true
    },
    {
      "id": 25,
      "content": "[UNUSED12]",
      "single_word": false,
      "lstrip": false,
      "rstrip": false,
      "normalized": false,
      "special": true
    },
    {
      "id": 26,
      "content": "[UNUSED13]",
      "single_word": false,
      "lstrip": false,
      "rstrip": false,
      "normalized": false,
      "special": true
    },
    {
      "id": 27,
      "content": "[UNUSED14]",
      "single_word": false,
      "lstrip": false,
      "rstrip": false,
      "normalized": false,
      "special": true
    },
    {
      "id": 28,
      "content": "[UNUSED15]",
      "single_word": false,
      "lstrip": false,
      "rstrip": false,
      "normalized": false,
      "special": true
    },
    {
      "id": 29,
      "content": "[UNUSED16]",
      "single_word": false,
      "lstrip": false,
      "rstrip": false,
      "normalized": false,
      "special": true
    },
    {
      "id": 30,
      "content": "[UNUSED17]",
      "single_word": false,
      "lstrip": false,
      "rstrip": false,
      "normalized": false,
      "special": true
    },
    {
      "id": 31,
      "content": "[UNUSED18]",
      "single_word": false,
      "lstrip": false,
      "rstrip": false,
      "normalized": false,
      "special": true
    }
  ],
  "normalizer": {
    "type": "NFC"
  },
  "pre_tokenizer": {
    "type": "ByteLevel",
    "add_prefix_space": false,
    "trim_offsets": true,
    "use_regex": true
  },
  "post_processor": null,
  "decoder": {
    "type": "ByteLevel",
    "add_prefix_space": true,
    "trim_offsets": true,
    "use_regex": true
  },
  "model": {
    "type": "BPE",
    "dropout": null,
    "unk_token": "[UNK]",
    "continuing_subword_prefix": null,
    "end_of_word_suffix": null,
    "fuse_unk": false,
    "byte_fallback": false,
    "vocab": {
      "[CLS]": 0,
      "[SEP]": 1,
      "[PAD]": 2,
      "[UNK]": 3,
      "[MASK]": 4,
      "[QUERY]": 5,
      "[CATEG]": 6,
      "[BSNS_VRTCL]": 7,
      "[TITLE]": 8,
      "[SUB_TITLE]": 9,
      "[DESC]": 10,
      "[ASPECT]": 11,
      "[REVIEW]": 12,
      "[UNUSED00]": 13,
      "[UNUSED01]": 14,
      "[UNUSED02]": 15,
      "[UNUSED03]": 16,
      "[UNUSED04]": 17,
      "[UNUSED05]": 18,
      "[UNUSED06]": 19,
      "[UNUSED07]": 20,
      "[UNUSED08]": 21,
      "[UNUSED09]": 22,
      "[UNUSED10]": 23,
      "[UNUSED11]": 24,
      "[UNUSED12]": 25,
      "[UNUSED13]": 26,
      "[UNUSED14]": 27,
      "[UNUSED15]": 28,
      "[UNUSED16]": 29,
      "[UNUSED17]": 30,
      "[UNUSED18]": 31,
      "!": 32,
      "\"": 33,
      "#": 34,
      "$": 35,
      "%": 36,
      "&": 37,
      "'": 38,
      "(": 39,
      ")": 40,
      "*": 41,
      "+": 42,
      ",": 43,
      "-": 44,
      ".": 45,
      "/": 46,
      "0": 47,
      "1": 48,
      "2": 49,
      "3": 50,
      "4": 51,
      "5": 52,
      "6": 53,
      "7": 54,
      "8": 55,
      "9": 56,
      ":": 57,
      ";": 58,
      "<": 59,
      "=": 60,
      ">": 61,
      "?": 62,
      "@": 63,
      "A": 64,
      "B": 65,
      "C": 66,
      "D": 67,
      "E": 68,
      "F": 69,
      "G": 70,
      "H": 71,
      "I": 72,
      "J": 73,
      "K": 74,
      "L": 75,
      "M": 76,
      "N": 77,
      "O": 78,
      "P": 79,
      "Q": 80,
      "R": 81,
      "S": 82,
      "T": 83,
      "U": 84,
      "V": 85,
      "W": 86,
      "X": 87,
      "Y": 88,
      "Z": 89,
      "[": 90,
      "\\": 91,
      "]": 92,
      "^": 93,
      "_": 94,
      "`": 95,
      "a": 96,
      "b": 97,
      "c": 98,
      "d": 99,
      "e": 100,
      "f": 101,
      "g": 102,
      "h": 103,
      "i": 104,
      "j": 105,
      "k": 106,
      "l": 107,
      "m": 108,
      "n": 109,
      "o": 110,
      "p": 111,
      "q": 112,
      "r": 113,
      "s": 114,
      "t": 115,
      "u": 116,
      "v": 117,
      "w": 118,
      "x": 119,
      "y": 120,
      "z": 121,
      "{": 122,
      "|": 123,
      "}": 124,
      "~": 125,
      "¡": 126,
      "¢": 127,
      "£": 128,
      "¤": 129,
      "¥": 130,
      "¦": 131,
      "§": 132,
      "¨": 133,
      "©": 134,
      "ª": 135,
      "«": 136,
      "¬": 137,
      "®": 138,
      "¯": 139,
      "°": 140,
      "±": 141,
      "²": 142,
      "³": 143,
      "´": 144,
      "µ": 145,
      "¶": 146,
      "·": 147,
      "¸": 148,
      "¹": 149,
      "º": 150,
      "»": 151,
      "¼": 152,
      "½": 153,
      "¾": 154,
      "¿": 155,
      "À": 156,
      "Á": 157,
      "Â": 158,
      "Ã": 159,
      "Ä": 160,
      "Å": 161,
      "Æ": 162,
      "Ç": 163,
      "È": 164,
      "É": 165,
      "Ê": 166,
      "Ë": 167,
      "Ì": 168,
      "Í": 169,
      "Î": 170,
      "Ï": 171,
      "Ð": 172,
      "Ñ": 173,
      "Ò": 174,
      "Ó": 175,
      "Ô": 176,
      "Õ": 177,
      "Ö": 178,
      "×": 179,
      "Ø": 180,
      "Ù": 181,
      "Ú": 182,
      "Û": 183,
      "Ü": 184,
      "Ý": 185,
      "Þ": 186,
      "ß": 187,
      "à": 188,
      "á": 189,
      "â": 190,
      "ã": 191,
      "ä": 192,
      "å": 193,
      "æ": 194,
      "ç": 195,
      "è": 196,
      "é": 197,
      "ê": 198,
      "ë": 199,
      "ì": 200,
      "í": 201,
      "î": 202,
      "ï": 203,
      "ð": 204,
      "ñ": 205,
      "ò": 206,
      "ó": 207,
      "ô": 208,
      "õ": 209,
      "ö": 210,
      "÷": 211,
      "ø": 212,
      "ù": 213,
      "ú": 214,
      "û": 215,
      "ü": 216,
      "ý": 217,
      "þ": 218,
      "ÿ": 219,
      "Ā": 220,
      "ā": 221,
      "Ă": 222,
      "ă": 223,
      "Ą": 224,
      "ą": 225,
      "Ć": 226,
      "ć": 227,
      "Ĉ": 228,
      "ĉ": 229,
      "Ċ": 230,
      "ċ": 231,
      "Č": 232,
      "č": 233,
      "Ď": 234,
      "ď": 235,
      "Đ": 236,
      "đ": 237,
      "Ē": 238,
      "ē": 239,
      "Ĕ": 240,
      "ĕ": 241,
      "Ė": 242,
      "ė": 243,
      "Ę": 244,
      "ę": 245,
      "Ě": 246,
      "ě": 247,
      "Ĝ": 248,
      "ĝ": 249,
      "Ğ": 250,
      "ğ": 251,
      "Ġ": 252,
      "ġ": 253,
      "Ģ": 254,
      "ģ": 255,
      "Ĥ": 256,
      "ĥ": 257,
      "Ħ": 258,
      "ħ": 259,
      "Ĩ": 260,
      "ĩ": 261,
      "Ī": 262,
      "ī": 263,
      "Ĭ": 264,
      "ĭ": 265,
      "Į": 266,
      "į": 267,
      "İ": 268,
      "ı": 269,
      "Ĳ": 270,
      "ĳ": 271,
      "Ĵ": 272,
      "ĵ": 273,
      "Ķ": 274,
      "ķ": 275,
      "ĸ": 276,
      "Ĺ": 277,
      "ĺ": 278,
      "Ļ": 279,
      "ļ": 280,
      "Ľ": 281,
      "ľ": 282,
      "Ŀ": 283,
      "ŀ": 284,
      "Ł": 285,
      "ł": 286,
      "Ń": 287,
      "er": 288,
      "in": 289,
      "Ġa": 290,
      "Ġt": 291,
      "en": 292,
      "on": 293,
      "es": 294,
      "Ġs": 295,
      "or": 296,
      "an": 297,
      "he": 298,
      "ar": 299,
      "Ġd": 300,
      "at": 301,
      "it": 302,
      "Ġc": 303,
      "is": 304,
      "al": 305,
      "re": 306,
      "Ġp": 307,
      "le": 308,
      "Ġb": 309,
      "Ġw": 310,
      "ic": 311,
      "Ġf": 312,
      "ĠS": 313,
      "nd": 314,
      "el": 315,
      "Ġthe": 316,
      "Ġm": 317,
      "as": 318,
      "ou": 319,
      "ed": 320,
      "ing": 321,
      "Ġo": 322,
      "ro": 323,
      "ch": 324,
      "Ġl": 325,
      "ion": 326,
      "ĠC": 327,
      "il": 328,
      "Ġand": 329,
      "Ġin": 330,
      "et": 331,
      "ac": 332,
      "ĠP": 333,
      "ol": 334,
      "ĠB": 335,
      "Ġh": 336,
      "ent": 337,
      "Ġof": 338,
      "st": 339,
      "om": 340,
      "Ġ1": 341,
      "ĠM": 342,
      "ĠA": 343,
      "Ġto": 344,
      "ĠT": 345,
      "ra": 346,
      "un": 347,
      "ig": 348,
      "Ġg": 349,
      "Ġn": 350,
      "Ġe": 351,
      "ot": 352,
      "ur": 353,
      "am": 354,
      "us": 355,
      "ĠD": 356,
      "id": 357,
      "ver": 358,
      "ĠF": 359,
      "ĠL": 360,
      "ĠR": 361,
      "ad": 362,
      "20": 363,
      "Ġde": 364,
      "ut": 365,
      "im": 366,
      "Ġth": 367,
      "ĠG": 368,
      "ir": 369,
      "ter": 370,
      "ie": 371,
      "ct": 372,
      "ge": 373,
      "ĠW": 374,
      "ĠH": 375,
      "Ġre": 376,
      "ve": 377,
      "and": 378,
      "os": 379,
      "te": 380,
      "Ġ(": 381,
      "od": 382,
      "um": 383,
      "ĠE": 384,
      "ĠI": 385,
      "ow": 386,
      "qu": 387,
      "Ġfor": 388,
      "ack": 389,
      "ess": 390,
      "ul": 391,
      "ay": 392,
      "Ġy": 393,
      "ĠN": 394,
      "Ġis": 395,
      "Ġv": 396,
      "ab": 397,
      "em": 398,
      "ap": 399,
      "est": 400,
      "ri": 401,
      "ith": 402,
      "Ġst": 403,
      "ers": 404,
      "ly": 405,
      "ation": 406,
      "ell": 407,
      "ce": 408,
      "Ġcon": 409,
      "Ġbe": 410,
      "Ġr": 411,
      "00": 412,
      "Ġon": 413,
      "Ã©": 414,
      "ht": 415,
      "our": 416,
      "if": 417,
      "ist": 418,
      "Ġal": 419,
      "th": 420,
      "Ġwith": 421,
      "Ġ-": 422,
      "ke": 423,
      "ĠO": 424,
      "iz": 425,
      "Ġan": 426,
      "pp": 427,
      "Ġ20": 428,
      "Ġ2": 429,
      "ag": 430,
      "ill": 431,
      "Ġit": 432,
      "ard": 433,
      "ant": 434,
      "ok": 435,
      "ĠK": 436,
      "ĠV": 437,
      "Ġ3": 438,
      "Ġpro": 439,
      "art": 440,
      "ck": 441,
      "end": 442,
      "und": 443,
      "op": 444,
      "Ġun": 445,
      "ĠJ": 446,
      "ens": 447,
      "ies": 448,
      "pe": 449,
      "Ġse": 450,
      "Ġla": 451,
      "age": 452,
      "all": 453,
      "Ġwh": 454,
      "Ġby": 455,
      "ine": 456,
      "Ġcom": 457,
      "Ġle": 458,
      "Ġas": 459,
      "ĠU": 460,
      "Ġsh": 461,
      "int": 462,
      "iv": 463,
      "ight": 464,
      "ich": 465,
      "ort": 466,
      "'s": 467,
      "ud": 468,
      "ook": 469,
      "Ġor": 470,
      "ci": 471,
      "Ġj": 472,
      "og": 473,
      "Ġ4": 474,
      "The": 475,
      "ew": 476,
      "ĠSt": 477,
      "ust": 478,
      "Ġen": 479,
      "Ġqu": 480,
      "Ġk": 481,
      "ung": 482,
      "Ġch": 483,
      "ure": 484,
      "ber": 485,
      "Ã¼": 486,
      "ass": 487,
      "Ġyou": 488,
      "rom": 489,
      "ate": 490,
      "Ġex": 491,
      "Ġthat": 492,
      "Ġ19": 493,
      "ia": 494,
      "ip": 495,
      "ne": 496,
      "ment": 497,
      "Ġhe": 498,
      "Ġ5": 499,
      "ost": 500,
      "ize": 501,
      "Ġsu": 502,
      "her": 503,
      "ase": 504,
      "se": 505,
      "ore": 506,
      "ive": 507,
      "ak": 508,
      "Ġdi": 509,
      "Ġund": 510,
      "ity": 511,
      "ue": 512,
      "Ġare": 513,
      "out": 514,
      "Ã¤": 515,
      "ach": 516,
      "Ġpr": 517,
      "ain": 518,
      "ast": 519,
      "ff": 520,
      "ER": 521,
      "per": 522,
      "able": 523,
      "act": 524,
      "ind": 525,
      "ld": 526,
      "ear": 527,
      "pl": 528,
      "ib": 529,
      "ans": 530,
      "ood": 531,
      "Ġus": 532,
      "one": 533,
      "ide": 534,
      "Ġ\"": 535,
      "ub": 536,
      "ition": 537,
      "Ġdes": 538,
      "ere": 539,
      "hr": 540,
      "ite": 541,
      "av": 542,
      "ction": 543,
      "Âł": 544,
      "Ġthis": 545,
      "âĢ": 546,
      "io": 547,
      "ond": 548,
      "Ġpl": 549,
      "du": 550,
      "Ġ6": 551,
      "ave": 552,
      "ice": 553,
      "are": 554,
      "nt": 555,
      "IN": 556,
      "over": 557,
      "ord": 558,
      "19": 559,
      "au": 560,
      "Ġfrom": 561,
      "10": 562,
      "ĠBl": 563,
      "ry": 564,
      "Ġat": 565,
      "to": 566,
      "Ġnot": 567,
      "ier": 568,
      "Ġwas": 569,
      "mer": 570,
      "Ġall": 571,
      "ick": 572,
      "Ġso": 573,
      "up": 574,
      "ork": 575,
      "ont": 576,
      "ress": 577,
      "ov": 578,
      "old": 579,
      "cc": 580,
      "Ġ&": 581,
      "Ġz": 582,
      "ft": 583,
      "ical": 584,
      "Ġne": 585,
      "Ġder": 586,
      "ire": 587,
      "..": 588,
      "ĠRe": 589,
      "Th": 590,
      "rad": 591,
      "cl": 592,
      "Ġtr": 593,
      "Ġ8": 594,
      "ial": 595,
      "ll": 596,
      "pt": 597,
      "ong": 598,
      "eat": 599,
      "Ġper": 600,
      "Ġdel": 601,
      "Ġim": 602,
      "ph": 603,
      "che": 604,
      "ult": 605,
      "ang": 606,
      "ob": 607,
      "ous": 608,
      "Ġwill": 609,
      "Ġad": 610,
      "ĠCh": 611,
      "Ġar": 612,
      "reat": 613,
      "ock": 614,
      "ace": 615,
      "Ġver": 616,
      "back": 617,
      "50": 618,
      "orm": 619,
      "ign": 620,
      "Ġ7": 621,
      "Ġx": 622,
      "ĠIn": 623,
      "AN": 624,
      "ome": 625,
      "ug": 626,
      "Ġ9": 627,
      "Ġyour": 628,
      "Ġhave": 629,
      "ĠÃ": 630,
      "ON": 631,
      "oc": 632,
      "ater": 633,
      "Ġcan": 634,
      "fer": 635,
      "aper": 636,
      "AR": 637,
      "oy": 638,
      "Ġ201": 639,
      "Ġab": 640,
      "Ġcomp": 641,
      "Ġsp": 642,
      "ual": 643,
      "ail": 644,
      "oug": 645,
      "uch": 646,
      "ame": 647,
      "ark": 648,
      "Ġcl": 649,
      "Ġwe": 650,
      "ian": 651,
      "Ġbl": 652,
      "ike": 653,
      "oll": 654,
      "Ġcont": 655,
      "ĠSh": 656,
      "ox": 657,
      "ik": 658,
      "Ġ10": 659,
      "Ġbook": 660,
      "ish": 661,
      "ale": 662,
      "Ã³": 663,
      "ile": 664,
      "rand": 665,
      "Ġdie": 666,
      "Ġ200": 667,
      "LE": 668,
      "ory": 669,
      "uf": 670,
      "In": 671,
      "az": 672,
      "intage": 673,
      "ect": 674,
      "Ġel": 675,
      "ound": 676,
      "sch": 677,
      "itt": 678,
      "ran": 679,
      "ĠY": 680,
      "Ġ/": 681,
      "Ġet": 682,
      "Ġme": 683,
      "mm": 684,
      "Ġbut": 685,
      "so": 686,
      "OR": 687,
      "Ã¶": 688,
      "Ġdo": 689,
      "irt": 690,
      "ru": 691,
      "me": 692,
      "ose": 693,
      "Ġro": 694,
      "aperback": 695,
      "ary": 696,
      "This": 697,
      "que": 698,
      "ien": 699,
      "odel": 700,
      "ĠZ": 701,
      "Ġdis": 702,
      "Ġman": 703,
      "we": 704,
      "Ġte": 705,
      "ors": 706,
      "ime": 707,
      "Ġher": 708,
      "atch": 709,
      "ures": 710,
      "iver": 711,
      "ern": 712,
      "ĠThe": 713,
      "Ġsize": 714,
      "oot": 715,
      "ions": 716,
      "les": 717,
      "Ġhis": 718,
      "Ġpar": 719,
      "ric": 720,
      "Ġres": 721,
      "Ġ12": 722,
      "EN": 723,
      "man": 724,
      "Ġhas": 725,
      "ax": 726,
      "Ġi": 727,
      "ade": 728,
      "ĠX": 729,
      "ild": 730,
      "ings": 731,
      "ES": 732,
      "ep": 733,
      "12": 734,
      "vel": 735,
      "Ġsc": 736,
      "ĠPro": 737,
      "ĠSp": 738,
      "iss": 739,
      "ah": 740,
      "ese": 741,
      "amp": 742,
      "ake": 743,
      "be": 744,
      "ations": 745,
      "tern": 746,
      "ould": 747,
      "AT": 748,
      "ents": 749,
      "Ġein": 750,
      "ipp": 751,
      "ance": 752,
      "Ġcol": 753,
      "ated": 754,
      "ays": 755,
      "ED": 756,
      "ng": 757,
      "inal": 758,
      "air": 759,
      "Ġmy": 760,
      "Ġwork": 761,
      "ink": 762,
      "let": 763,
      "igh": 764,
      "ther": 765,
      "ower": 766,
      "Ġpart": 767,
      "Ġnew": 768,
      "dition": 769,
      "ise": 770,
      "form": 771,
      "ĠĠ": 772,
      "Ġone": 773,
      "18": 774,
      "der": 775,
      "ren": 776,
      "Ġes": 777,
      "Ġser": 778,
      "Ġ18": 779,
      "ree": 780,
      "ble": 781,
      "rit": 782,
      "ough": 783,
      "Ã¼r": 784,
      "ĠAr": 785,
      "Ġer": 786,
      "ert": 787,
      "lect": 788,
      "wn": 789,
      "omp": 790,
      "Ġout": 791,
      "res": 792,
      "MP": 793,
      "200": 794,
      "Ġup": 795,
      "It": 796,
      "ount": 797,
      "ĠSize": 798,
      "eg": 799,
      "21": 800,
      "ĠPl": 801,
      "ife": 802,
      "ss": 803,
      "ten": 804,
      "AL": 805,
      "ann": 806,
      "lic": 807,
      "chen": 808,
      "Ġche": 809,
      "Ġapp": 810,
      "clud": 811,
      "30": 812,
      "ini": 813,
      "ove": 814,
      "ons": 815,
      "ool": 816,
      "IT": 817,
      "Ġpre": 818,
      "urn": 819,
      "duct": 820,
      "lease": 821,
      "Ġil": 822,
      "60": 823,
      "att": 824,
      "Ġph": 825,
      "ence": 826,
      "ĠDe": 827,
      "Ġitem": 828,
      "Ġvon": 829,
      "Ġest": 830,
      "olog": 831,
      "AS": 832,
      "ull": 833,
      "kt": 834,
      "sh": 835,
      "iel": 836,
      "ÃŃ": 837,
      "âĢĻ": 838,
      "ĠUn": 839,
      "Ġque": 840,
      "Ġaut": 841,
      "ely": 842,
      "Ġmit": 843,
      "xt": 844,
      "ces": 845,
      "St": 846,
      "Ġtheir": 847,
      "ett": 848,
      "Ġany": 849,
      "ype": 850,
      "ĠBlack": 851,
      "Ġcar": 852,
      "Ġam": 853,
      "Ġno": 854,
      "Ã¨": 855,
      "Ġ0": 856,
      "ics": 857,
      "ott": 858,
      "ÃŁ": 859,
      "ins": 860,
      "de": 861,
      "Ġmore": 862,
      "ible": 863,
      "co": 864,
      "11": 865,
      "40": 866,
      "own": 867,
      "ze": 868,
      "ĠSch": 869,
      "lass": 870,
      "ione": 871,
      "ĠSe": 872,
      "ĠAn": 873,
      "Ġfl": 874,
      "Ġtra": 875,
      "cial": 876,
      "ven": 877,
      "aus": 878,
      "ict": 879,
      "oh": 880,
      "umber": 881,
      "ĠLe": 882,
      "Ġthey": 883,
      "sp": 884,
      "ger": 885,
      "ank": 886,
      "RE": 887,
      "cover": 888,
      "tem": 889,
      "ps": 890,
      "arge": 891,
      "oss": 892,
      "Ġgood": 893,
      "icht": 894,
      "15": 895,
      "li": 896,
      "ari": 897,
      "IC": 898,
      "urch": 899,
      "ato": 900,
      "orn": 901,
      "Ġed": 902,
      "ica": 903,
      "Ġ:": 904,
      "Ã³n": 905,
      "Ġbr": 906,
      "its": 907,
      "16": 908,
      "ente": 909,
      "EL": 910,
      "land": 911,
      "22": 912,
      "Ġwho": 913,
      "aw": 914,
      "led": 915,
      "Ġsch": 916,
      "orld": 917,
      "Ġrec": 918,
      "Ġkn": 919,
      "bl": 920,
      "rade": 921,
      "Ġbu": 922,
      "ars": 923,
      "omm": 924,
      "ĠHe": 925,
      "Ġdu": 926,
      "ret": 927,
      "Ġ#": 928,
      "Ġimp": 929,
      "reen": 930,
      "ys": 931,
      "AC": 932,
      "ets": 933,
      "ST": 934,
      "OT": 935,
      "ĠÃł": 936,
      "Ġacc": 937,
      "Ġshe": 938,
      "Ġpol": 939,
      "omen": 940,
      "Ġtime": 941,
      "ĠUS": 942,
      "ash": 943,
      "Ġag": 944,
      "),": 945,
      "ĠQ": 946,
      "14": 947,
      "iginal": 948,
      "oth": 949,
      "Ġgreat": 950,
      "Ġour": 951,
      "ms": 952,
      "Model": 953,
      "Ġden": 954,
      "ner": 955,
      "Ġspe": 956,
      "Ġwhich": 957,
      "ella": 958,
      "Ġabout": 959,
      "ique": 960,
      "app": 961,
      "less": 962,
      "ix": 963,
      "ĠFl": 964,
      "yst": 965,
      "Brand": 966,
      "Ġinclud": 967,
      "Ġ199": 968,
      "MPN": 969,
      "Ġent": 970,
      "ĠNew": 971,
      "000": 972,
      "els": 973,
      "irst": 974,
      "70": 975,
      "ĠBe": 976,
      "ĠAl": 977,
      "ful": 978,
      "als": 979,
      "Ġco": 980,
      "uss": 981,
      "ĠSer": 982,
      "eb": 983,
      "Paperback": 984,
      "'t": 985,
      "Ġhow": 986,
      "aut": 987,
      "13": 988,
      "Ã¡": 989,
      "atter": 990,
      "lich": 991,
      "Ġgu": 992,
      "Ġ16": 993,
      "rag": 994,
      "ĠCol": 995,
      "ational": 996,
      "Ġinter": 997,
      "ific": 998,
      "ium": 999,
      "Ġsm": 1000,
      "ath": 1001,
      "25": 1002,
      "80": 1003,
      "ĠfÃ¼r": 1004,
      "We": 1005,
      "Ġke": 1006,
      "ron": 1007,
      "ĠCar": 1008,
      "Ġvery": 1009,
      "ING": 1010,
      "Ġ14": 1011,
      "Ġover": 1012,
      "af": 1013,
      "ĠPart": 1014,
      "ange": 1015,
      "Ġother": 1016,
      "yl": 1017,
      "Ġever": 1018,
      "aterial": 1019,
      "17": 1020,
      "Ġem": 1021,
      "Ġonly": 1022,
      "ĠTh": 1023,
      "ĠTe": 1024,
      "OL": 1025,
      "Ġgr": 1026,
      "erst": 1027,
      "ipping": 1028,
      "Ġuna": 1029,
      "Ġpe": 1030,
      "Ġret": 1031,
      "red": 1032,
      "Ġreal": 1033,
      "arm": 1034,
      "ied": 1035,
      "raph": 1036,
      "ĠTr": 1037,
      "Ġused": 1038,
      ").": 1039,
      "Ġprov": 1040,
      "Ġproduct": 1041,
      "Ġread": 1042,
      "enn": 1043,
      "eng": 1044,
      "of": 1045,
      "ears": 1046,
      "oes": 1047,
      "ĠCl": 1048,
      "vent": 1049,
      "ates": 1050,
      "Ġalso": 1051,
      "arn": 1052,
      "Ġbeen": 1053,
      "ĠWh": 1054,
      "Ġra": 1055,
      "fl": 1056,
      "Ġsur": 1057,
      "UR": 1058,
      "ilver": 1059,
      "Ġuse": 1060,
      "ced": 1061,
      "era": 1062,
      "Ġset": 1063,
      "ina": 1064,
      "Ġlife": 1065,
      "ata": 1066,
      "cm": 1067,
      "Ġwhen": 1068,
      "ener": 1069,
      "Ġdem": 1070,
      "Ġoff": 1071,
      "ĠAd": 1072,
      "...": 1073,
      "Ġwell": 1074,
      "ĠFor": 1075,
      "bo": 1076,
      "lection": 1077,
      "Pro": 1078,
      "erson": 1079,
      "den": 1080,
      "pr": 1081,
      "Ġfe": 1082,
      "Ġwhat": 1083,
      "ts": 1084,
      "ET": 1085,
      "ters": 1086,
      "Ġhand": 1087,
      "Ġinto": 1088,
      "Ġist": 1089,
      "Ġits": 1090,
      "IL": 1091,
      "fter": 1092,
      "Ġzu": 1093,
      "Ġles": 1094,
      "ĠOr": 1095,
      "Ġthem": 1096,
      "Ġdif": 1097,
      "Ġstud": 1098,
      "Ġrel": 1099,
      "Ġthr": 1100,
      "oor": 1101,
      "ĠPaperback": 1102,
      "ily": 1103,
      "HE": 1104,
      "Ġ15": 1105,
      "rol": 1106,
      "ĠSc": 1107,
      "Ġac": 1108,
      "ĠMar": 1109,
      "Ġcard": 1110,
      "IS": 1111,
      "eth": 1112,
      "Ġback": 1113,
      "ley": 1114,
      "elt": 1115,
      "ient": 1116,
      "Ġif": 1117,
      "ĠTrade": 1118,
      "ront": 1119,
      "ystem": 1120,
      "Ġlike": 1121,
      "pro": 1122,
      "Ġsec": 1123,
      "son": 1124,
      "RO": 1125,
      "ball": 1126,
      "eter": 1127,
      "rib": 1128,
      "Ġbet": 1129,
      "ional": 1130,
      "Ġtw": 1131,
      "ray": 1132,
      "acket": 1133,
      "Ġint": 1134,
      "Ġneed": 1135,
      "ement": 1136,
      "Wh": 1137,
      "ĠNumber": 1138,
      "Ġ,": 1139,
      "chn": 1140,
      "Ġsome": 1141,
      "Ġauf": 1142,
      "pect": 1143,
      "ider": 1144,
      "riv": 1145,
      "ux": 1146,
      "ather": 1147,
      "Ġlight": 1148,
      "ton": 1149,
      "Ġhel": 1150,
      "Ġpres": 1151,
      "AM": 1152,
      "asy": 1153,
      "Re": 1154,
      "ush": 1155,
      "ĠGr": 1156,
      "Ġhigh": 1157,
      "Ġind": 1158,
      "ams": 1159,
      "ĠSu": 1160,
      "elf": 1161,
      "ado": 1162,
      "ĠPr": 1163,
      "ouse": 1164,
      "Ġlos": 1165,
      "lee": 1166,
      "US": 1167,
      "ĠÃ©": 1168,
      "Ġjust": 1169,
      "Ġthan": 1170,
      "Ġfirst": 1171,
      "Ġcons": 1172,
      "mas": 1173,
      "ality": 1174,
      "ator": 1175,
      "Ġdress": 1176,
      "eatures": 1177,
      "arg": 1178,
      "ants": 1179,
      "Ġthrough": 1180,
      "fect": 1181,
      "Ġfil": 1182,
      "90": 1183,
      "Ġmost": 1184,
      "Ġ100": 1185,
      "ĠSte": 1186,
      "Ġ30": 1187,
      "olo": 1188,
      "ĠSet": 1189,
      "bre": 1190,
      "yle": 1191,
      "Ġcondition": 1192,
      "cess": 1193,
      "irl": 1194,
      "ating": 1195,
      "ene": 1196,
      "Ġlong": 1197,
      "Ġda": 1198,
      "EM": 1199,
      "br": 1200,
      "ardcover": 1201,
      "Ġbox": 1202,
      "iÃ³n": 1203,
      "ram": 1204,
      "ism": 1205,
      "ivers": 1206,
      "Ġlook": 1207,
      "ular": 1208,
      "con": 1209,
      "hed": 1210,
      "\",": 1211,
      "alt": 1212,
      "ative": 1213,
      "Ġav": 1214,
      "aint": 1215,
      "Ch": 1216,
      "ĠCon": 1217,
      "ĠBr": 1218,
      "Ġcomm": 1219,
      "gan": 1220,
      "Ġthese": 1221,
      "orts": 1222,
      "Ġinst": 1223,
      "ico": 1224,
      "Ġ11": 1225,
      "Ġbec": 1226,
      "ION": 1227,
      "Ġpo": 1228,
      "ple": 1229,
      "Ġcover": 1230,
      "For": 1231,
      "Ġworld": 1232,
      "isch": 1233,
      "uc": 1234,
      "ĠâĢ": 1235,
      "Ã©s": 1236,
      "za": 1237,
      "cept": 1238,
      "Ġtrans": 1239,
      "eller": 1240,
      "ey": 1241,
      "35": 1242,
      "fore": 1243,
      "Ãł": 1244,
      "Ġins": 1245,
      "Ġtop": 1246,
      "ĠAut": 1247,
      "Ġbest": 1248,
      "AD": 1249,
      "Ġact": 1250,
      "Ġsk": 1251,
      "IG": 1252,
      "ody": 1253,
      "inn": 1254,
      "Ġ50": 1255,
      "iew": 1256,
      "ĠChr": 1257,
      "ited": 1258,
      "Ġart": 1259,
      "Ġevery": 1260,
      "Ġmed": 1261,
      "ante": 1262,
      "Ġblack": 1263,
      "EW": 1264,
      "omens": 1265,
      "CH": 1266,
      "ural": 1267,
      "uro": 1268,
      "Ġfind": 1269,
      "ird": 1270,
      "24": 1271,
      "ohn": 1272,
      "Ġrem": 1273,
      "vol": 1274,
      "Ġson": 1275,
      "lex": 1276,
      "ino": 1277,
      "AG": 1278,
      "ler": 1279,
      "ories": 1280,
      "Ġhad": 1281,
      "Ġaus": 1282,
      "Ġsl": 1283,
      "ines": 1284,
      "su": 1285,
      "Ġreg": 1286,
      "aj": 1287,
      "ano": 1288,
      "Ġfam": 1289,
      "Ġ.": 1290,
      "Ġshirt": 1291,
      "ume": 1292,
      "Ġdec": 1293,
      "ĠEx": 1294,
      "Ġste": 1295,
      "ote": 1296,
      "Ġpost": 1297,
      "vice": 1298,
      "ummer": 1299,
      "uck": 1300,
      "Ġwould": 1301,
      "Ġquest": 1302,
      "Ġmod": 1303,
      "ahr": 1304,
      "row": 1305,
      "vintage": 1306,
      "He": 1307,
      "ĠCo": 1308,
      "ĠComp": 1309,
      "Ġlot": 1310,
      "Type": 1311,
      "ĠNe": 1312,
      "ives": 1313,
      "La": 1314,
      "ows": 1315,
      "arr": 1316,
      "Ġsw": 1317,
      "cy": 1318,
      "If": 1319,
      "ling": 1320,
      "otor": 1321,
      "Ġshipping": 1322,
      "Ġmay": 1323,
      "gr": 1324,
      "Ġ+": 1325,
      "mp": 1326,
      "75": 1327,
      "Al": 1328,
      "ift": 1329,
      "Ġget": 1330,
      "Ġfun": 1331,
      "ĠVer": 1332,
      "Ġyears": 1333,
      "Ġplay": 1334,
      "99": 1335,
      "bs": 1336,
      "Ġcap": 1337,
      "Ġ13": 1338,
      "ĠPh": 1339,
      "Sh": 1340,
      "Ġhist": 1341,
      "Ġdas": 1342,
      "Ġpor": 1343,
      "ograph": 1344,
      "Ġgl": 1345,
      "Man": 1346,
      "Ġthere": 1347,
      "ased": 1348,
      "ments": 1349,
      "ĠÂ": 1350,
      "Ġcle": 1351,
      "ature": 1352,
      "ross": 1353,
      "ster": 1354,
      "ject": 1355,
      "ney": 1356,
      "ufact": 1357,
      "ĠHand": 1358,
      "Ġ*": 1359,
      "leg": 1360,
      "Ġext": 1361,
      "Ġ40": 1362,
      "ste": 1363,
      "Ġmake": 1364,
      "Ġwere": 1365,
      "An": 1366,
      "ral": 1367,
      "itch": 1368,
      "Ġau": 1369,
      "ĠST": 1370,
      "ek": 1371,
      "Ġpack": 1372,
      "ior": 1373,
      "arac": 1374,
      "ĠIN": 1375,
      "men": 1376,
      "ï¿": 1377,
      "ette": 1378,
      "ican": 1379,
      "Ġdesign": 1380,
      "ought": 1381,
      "Ġcase": 1382,
      "Ġafter": 1383,
      "ĠGu": 1384,
      "Ġter": 1385,
      "ides": 1386,
      "Ġoriginal": 1387,
      "ĠAmer": 1388,
      "Ġgo": 1389,
      "ura": 1390,
      "iam": 1391,
      "ility": 1392,
      "ages": 1393,
      "Ġdella": 1394,
      "iness": 1395,
      "ane": 1396,
      "Ġstr": 1397,
      "the": 1398,
      "ital": 1399,
      "Ġatt": 1400,
      "ology": 1401,
      "ĠBlue": 1402,
      "Ġcm": 1403,
      "Ġsign": 1404,
      "ious": 1405,
      "ID": 1406,
      "Ġhelp": 1407,
      "Un": 1408,
      "ĠĠĠ": 1409,
      "100": 1410,
      "Ġmon": 1411,
      "iter": 1412,
      "Ġref": 1413,
      "ĠWhite": 1414,
      "uff": 1415,
      "GB": 1416,
      "esch": 1417,
      "UT": 1418,
      "ĠSm": 1419,
      "Le": 1420,
      "Ġform": 1421,
      "olf": 1422,
      "vers": 1423,
      "Mar": 1424,
      "Die": 1425,
      "lt": 1426,
      "ames": 1427,
      "Ġ'": 1428,
      "hor": 1429,
      "Vintage": 1430,
      "!!": 1431,
      "ada": 1432,
      "Ġcent": 1433,
      "ï¿½": 1434,
      "akes": 1435,
      "ilit": 1436,
      "ats": 1437,
      "Ġsich": 1438,
      "agn": 1439,
      "Ġexper": 1440,
      "Ġleg": 1441,
      "ca": 1442,
      "Ġbefore": 1443,
      "ask": 1444,
      "rown": 1445,
      "ĠWe": 1446,
      "Ġmar": 1447,
      "ĠAN": 1448,
      "Ġown": 1449,
      "Ġitems": 1450,
      "Ġphot": 1451,
      "elle": 1452,
      "Ġbuy": 1453,
      "ĠTO": 1454,
      "ungen": 1455,
      "here": 1456,
      "Ġquality": 1457,
      "Ġ24": 1458,
      "ungs": 1459,
      "ufactur": 1460,
      "ĠÃ¨": 1461,
      "Ġvol": 1462,
      "gen": 1463,
      "ĠChrist": 1464,
      "Ġcor": 1465,
      "ustom": 1466,
      "Ġreturn": 1467,
      "rap": 1468,
      "velop": 1469,
      "ĠDis": 1470,
      "Please": 1471,
      "ĠMan": 1472,
      "ccess": 1473,
      "arb": 1474,
      "ident": 1475,
      "ĠSw": 1476,
      "Ġmade": 1477,
      "sc": 1478,
      "Ġdesc": 1479,
      "Ġmany": 1480,
      "ains": 1481,
      "Ġpower": 1482,
      "vis": 1483,
      "aster": 1484,
      "Ġ17": 1485,
      "opp": 1486,
      "ais": 1487,
      "ield": 1488,
      "32": 1489,
      "aft": 1490,
      "Ġrep": 1491,
      "ai": 1492,
      "Ġlove": 1493,
      "riend": 1494,
      "ople": 1495,
      "Ġdiffer": 1496,
      "Ġrece": 1497,
      "Ġperson": 1498,
      "unk": 1499,
      "Ġtwo": 1500,
      "Ġadd": 1501,
      "Ġ25": 1502,
      "eather": 1503,
      "aking": 1504,
      "oe": 1505,
      "UN": 1506,
      "cell": 1507,
      "ĠFran": 1508,
      "ips": 1509,
      "Ġpurch": 1510,
      "ids": 1511,
      "other": 1512,
      "Ġlo": 1513,
      "ĠAnd": 1514,
      "iqu": 1515,
      "Ġlas": 1516,
      "ason": 1517,
      "ex": 1518,
      "tt": 1519,
      "Ġpub": 1520,
      "Ġeff": 1521,
      "Ġsi": 1522,
      "--": 1523,
      "Ã©e": 1524,
      "ĠArt": 1525,
      "Ġcr": 1526,
      "Ġmen": 1527,
      "Ġmov": 1528,
      "ĠCO": 1529,
      "Ġval": 1530,
      "ittle": 1531,
      "Ġsupp": 1532,
      "endo": 1533,
      "Ġday": 1534,
      "65": 1535,
      "All": 1536,
      "hone": 1537,
      "Ġdays": 1538,
      "45": 1539,
      "Ġwatch": 1540,
      "Ġend": 1541,
      "Ġplease": 1542,
      "par": 1543,
      "Ġwar": 1544,
      "Ã¤t": 1545,
      "ape": 1546,
      "lete": 1547,
      "Ġclass": 1548,
      "rem": 1549,
      "mens": 1550,
      "och": 1551,
      "alk": 1552,
      "Ġass": 1553,
      "iner": 1554,
      "ves": 1555,
      "ĠCard": 1556,
      "Ġwithin": 1557,
      "ĠSie": 1558,
      "Ġ198": 1559,
      "rie": 1560,
      "Features": 1561,
      "Ġsol": 1562,
      "ait": 1563,
      "Ġinc": 1564,
      "Ġnon": 1565,
      "Ġeine": 1566,
      "Ġway": 1567,
      "Ġdeliver": 1568,
      "Ġsmall": 1569,
      "ours": 1570,
      "usiness": 1571,
      "Ġexpl": 1572,
      "Ġhim": 1573,
      "Ġdet": 1574,
      "Ġknow": 1575,
      "fe": 1576,
      "ury": 1577,
      "Ã±": 1578,
      "ĠBox": 1579,
      "ati": 1580,
      "VD": 1581,
      "ĠPol": 1582,
      "inter": 1583,
      "Ġmus": 1584,
      "urs": 1585,
      "astic": 1586,
      "Ġsim": 1587,
      "cle": 1588,
      "Ġchild": 1589,
      "ute": 1590,
      "ige": 1591,
      "Ġhead": 1592,
      "ĠLight": 1593,
      "orth": 1594,
      "Ġcost": 1595,
      "ĠUK": 1596,
      "En": 1597,
      "Col": 1598,
      "yn": 1599,
      "day": 1600,
      "ĠEng": 1601,
      "iet": 1602,
      "Ġorder": 1603,
      "ufacturer": 1604,
      "ĠRo": 1605,
      "play": 1606,
      "adies": 1607,
      "ĠQu": 1608,
      "Ġcam": 1609,
      "Ġdon": 1610,
      "23": 1611,
      "ony": 1612,
      "ee": 1613,
      "Ġstory": 1614,
      "ben": 1615,
      "ara": 1616,
      "Ġdans": 1617,
      "PS": 1618,
      "Ġinform": 1619,
      "etal": 1620,
      "EC": 1621,
      "uring": 1622,
      "by": 1623,
      "ero": 1624,
      "Ġdoes": 1625,
      "ution": 1626,
      "Ġmuch": 1627,
      "unn": 1628,
      "ness": 1629,
      "ward": 1630,
      "ĠCont": 1631,
      "ischen": 1632,
      "avy": 1633,
      "por": 1634,
      "ĠDes": 1635,
      "rew": 1636,
      "AY": 1637,
      "min": 1638,
      "ved": 1639,
      "rist": 1640,
      "ctor": 1641,
      "fess": 1642,
      "ament": 1643,
      "Ġps": 1644,
      "pen": 1645,
      "way": 1646,
      "ause": 1647,
      "ones": 1648,
      "Ġpour": 1649,
      "fin": 1650,
      "ĠBook": 1651,
      "Il": 1652,
      "Ġsub": 1653,
      "Ġcome": 1654,
      "ream": 1655,
      "rop": 1656,
      "get": 1657,
      "64": 1658,
      "imes": 1659,
      "attery": 1660,
      "ilt": 1661,
      "vo": 1662,
      "Ġpay": 1663,
      "raft": 1664,
      "Ġfig": 1665,
      "ĠRed": 1666,
      "ĠGl": 1667,
      "OS": 1668,
      "Ġbag": 1669,
      "Ġdies": 1670,
      "ando": 1671,
      "une": 1672,
      "Ġlarge": 1673,
      "Ar": 1674,
      "ĠTra": 1675,
      "Ġdisc": 1676,
      "Bl": 1677,
      "ĠdÃ©": 1678,
      "ĠApp": 1679,
      "oots": 1680,
      "IR": 1681,
      "ĠMed": 1682,
      "aby": 1683,
      "ma": 1684,
      "atic": 1685,
      "Ġmin": 1686,
      "Ġsee": 1687,
      "Ġpara": 1688,
      "aker": 1689,
      "ript": 1690,
      "ĠSo": 1691,
      "auf": 1692,
      "port": 1693,
      "ÃŃa": 1694,
      "Ġune": 1695,
      "Ġwhe": 1696,
      "ĠTHE": 1697,
      "Ġsuch": 1698,
      "Ġprice": 1699,
      "Ġlist": 1700,
      "ctions": 1701,
      "Ġseries": 1702,
      "Ġeasy": 1703,
      "bert": 1704,
      "199": 1705,
      "Ġsystem": 1706,
      "light": 1707,
      "Ġagain": 1708,
      "ĠInd": 1709,
      "ĠAll": 1710,
      "28": 1711,
      "Ġpeople": 1712,
      "aciÃ³n": 1713,
      "VER": 1714,
      "rey": 1715,
      "ety": 1716,
      "INT": 1717,
      "ches": 1718,
      "ĠEr": 1719,
      "Ġge": 1720,
      "AND": 1721,
      "war": 1722,
      "Ġnicht": 1723,
      "Ġeven": 1724,
      "Ġje": 1725,
      "amsung": 1726,
      "ode": 1727,
      "Ġvari": 1728,
      "Ġsuper": 1729,
      "uit": 1730,
      "\".": 1731,
      "emon": 1732,
      "Ġeng": 1733,
      "ĠGold": 1734,
      "Ġedition": 1735,
      "nen": 1736,
      "ĠMen": 1737,
      "ring": 1738,
      "Ġpop": 1739,
      "wer": 1740,
      "apt": 1741,
      "IP": 1742,
      "ille": 1743,
      "ĠAir": 1744,
      "board": 1745,
      "ĠSpe": 1746,
      "ices": 1747,
      "Ġfin": 1748,
      "rip": 1749,
      "Ġdevelop": 1750,
      "ender": 1751,
      "bar": 1752,
      "Ġproble": 1753,
      "Manufacturer": 1754,
      "ĠSk": 1755,
      "cellent": 1756,
      "Ex": 1757,
      "Ġperfect": 1758,
      "ales": 1759,
      "Ġwomen": 1760,
      "ĠWith": 1761,
      "ahl": 1762,
      "ACK": 1763,
      "55": 1764,
      "omb": 1765,
      "Ġhum": 1766,
      "ternational": 1767,
      "AP": 1768,
      "book": 1769,
      "igen": 1770,
      "Ġpract": 1771,
      "uk": 1772,
      "icro": 1773,
      "ĠEdition": 1774,
      "oys": 1775,
      "Ġexp": 1776,
      "hal": 1777,
      "Ġimport": 1778,
      "ump": 1779,
      "Ġplus": 1780,
      "Ġprim": 1781,
      "aracter": 1782,
      "33": 1783,
      "cia": 1784,
      "iron": 1785,
      "Ġgame": 1786,
      "Ġwer": 1787,
      "Ġwr": 1788,
      "alth": 1789,
      "Ġjacket": 1790,
      "Item": 1791,
      "Ġhapp": 1792,
      "Ġcollection": 1793,
      "roll": 1794,
      "OM": 1795,
      "ĠSH": 1796,
      "Ġals": 1797,
      "ery": 1798,
      "Ġwant": 1799,
      "ally": 1800,
      "AB": 1801,
      "Ġair": 1802,
      "ength": 1803,
      "utt": 1804,
      "Ġmm": 1805,
      "box": 1806,
      "ĠType": 1807,
      "Be": 1808,
      "ract": 1809,
      "ween": 1810,
      "Ġstand": 1811,
      "Ġfit": 1812,
      "Ġeach": 1813,
      "Ġgener": 1814,
      "zz": 1815,
      "ished": 1816,
      "ĠCam": 1817,
      "Ġdam": 1818,
      "lo": 1819,
      "ief": 1820,
      "unt": 1821,
      "ita": 1822,
      "Ġtechn": 1823,
      "ining": 1824,
      "Ġboth": 1825,
      "Ġvintage": 1826,
      "ĠNEW": 1827,
      "Ġcur": 1828,
      "ĠSilver": 1829,
      "leeve": 1830,
      "off": 1831,
      "na": 1832,
      "Ġwhite": 1833,
      "Ġcal": 1834,
      "Ã¼ck": 1835,
      "Ġdifferent": 1836,
      "Ġbo": 1837,
      "Ġunder": 1838,
      "Ġpict": 1839,
      "ities": 1840,
      "IM": 1841,
      "âĢĿ": 1842,
      "ĠEl": 1843,
      "El": 1844,
      "for": 1845,
      "uer": 1846,
      "read": 1847,
      "Ġpi": 1848,
      "ĠGe": 1849,
      "ĠKit": 1850,
      "Ġloc": 1851,
      "Ġold": 1852,
      "Ġconf": 1853,
      "26": 1854,
      "Ġmust": 1855,
      "Se": 1856,
      "Ġvis": 1857,
      "ĠTop": 1858,
      "any": 1859,
      "ĠAb": 1860,
      "just": 1861,
      "atz": 1862,
      "ized": 1863,
      "36": 1864,
      "Ġmem": 1865,
      "ense": 1866,
      "Ġob": 1867,
      "Ġwhere": 1868,
      "ĠMon": 1869,
      "view": 1870,
      "ues": 1871,
      "ĠDress": 1872,
      "Ġpolit": 1873,
      "Ġposs": 1874,
      "Ġgold": 1875,
      "cer": 1876,
      "ooth": 1877,
      "earch": 1878,
      "ĠSl": 1879,
      "34": 1880,
      "anz": 1881,
      "ENT": 1882,
      "78": 1883,
      "itle": 1884,
      "ĠPer": 1885,
      "inder": 1886,
      "Ġmodel": 1887,
      "Ġant": 1888,
      "Pl": 1889,
      "Ġpass": 1890,
      "Ġlearn": 1891,
      "ole": 1892,
      "Ġbel": 1893,
      "As": 1894,
      "plac": 1895,
      "col": 1896,
      "azione": 1897,
      "enz": 1898,
      "**": 1899,
      "Ġpresent": 1900,
      "ido": 1901,
      "lin": 1902,
      "ana": 1903,
      "ouch": 1904,
      "Ġcontact": 1905,
      "amb": 1906,
      "Ġvers": 1907,
      "ired": 1908,
      "Ġexperien": 1909,
      "ros": 1910,
      "rive": 1911,
      "Ġfull": 1912,
      "lish": 1913,
      "Ġprote": 1914,
      "iving": 1915,
      "ror": 1916,
      "Ġve": 1917,
      "ĠPar": 1918,
      "use": 1919,
      "38": 1920,
      "Ġess": 1921,
      "ister": 1922,
      "ists": 1923,
      "ĠCan": 1924,
      "ever": 1925,
      "Ġhat": 1926,
      "Ġbetween": 1927,
      "ollow": 1928,
      "Ġright": 1929,
      "okemon": 1930,
      "ĠIs": 1931,
      "mb": 1932,
      "erstand": 1933,
      "Ġdist": 1934,
      "But": 1935,
      "Ġthen": 1936,
      "Ġ60": 1937,
      "ĠOn": 1938,
      "ĠII": 1939,
      "OD": 1940,
      "Ġpat": 1941,
      "UL": 1942,
      "go": 1943,
      "Ġgen": 1944,
      "ische": 1945,
      "fort": 1946,
      "Ġ$": 1947,
      "Ġtem": 1948,
      "ĠVintage": 1949,
      "Ġum": 1950,
      "iten": 1951,
      "oun": 1952,
      "com": 1953,
      "Ġev": 1954,
      "ĠPS": 1955,
      "Ġmens": 1956,
      "Ġmark": 1957,
      "Ġbusiness": 1958,
      "ĠHer": 1959,
      "Ġauch": 1960,
      "ĠJohn": 1961,
      "You": 1962,
      "Ġnow": 1963,
      "abe": 1964,
      "ald": 1965,
      "ince": 1966,
      "ĠCover": 1967,
      "Ġdire": 1968,
      "Ġlittle": 1969,
      "Ġcare": 1970,
      "27": 1971,
      "Ġwerden": 1972,
      "oman": 1973,
      "gy": 1974,
      "tal": 1975,
      "Ġnel": 1976,
      "Ġfriend": 1977,
      "outh": 1978,
      "Ġlead": 1979,
      "Ġoder": 1980,
      "ĠNo": 1981,
      "Ġbro": 1982,
      "iger": 1983,
      "yp": 1984,
      "apan": 1985,
      "Ġmag": 1986,
      "Ġave": 1987,
      "atural": 1988,
      "Ġdown": 1989,
      "2021": 1990,
      "ui": 1991,
      "Ġann": 1992,
      "oney": 1993,
      "raw": 1994,
      "48": 1995,
      "Ġear": 1996,
      "ope": 1997,
      "ering": 1998,
      "Ġcustom": 1999,
      "line": 2000,
      "ĠHardcover": 2001,
      "ĠAnt": 2002,
      "Ġfamily": 2003,
      "Ġrequ": 2004,
      "ĠMe": 2005,
      "Ġtake": 2006,
      "ĠWar": 2007,
      "ĠSeries": 2008,
      "Ġprodu": 2009,
      "Ġwur": 2010,
      "Ġdid": 2011,
      "Material": 2012,
      "gra": 2013,
      "Ġcount": 2014,
      "Ġresp": 2015,
      "thing": 2016,
      "ĠOF": 2017,
      "Ġinv": 2018,
      "ube": 2019,
      "uel": 2020,
      "amente": 2021,
      "idas": 2022,
      "Size": 2023,
      "ured": 2024,
      "apter": 2025,
      "ĠiP": 2026,
      "Ã¼ber": 2027,
      "ores": 2028,
      "ĠSP": 2029,
      "Ġshould": 2030,
      "Ġwater": 2031,
      "OW": 2032,
      "Ġgra": 2033,
      "aid": 2034,
      "Ġsind": 2035,
      "Ġauthor": 2036,
      "rid": 2037,
      "ĠCase": 2038,
      "stru": 2039,
      "Ġfree": 2040,
      "ĠLeather": 2041,
      "Ġhome": 2042,
      "ĠAmerican": 2043,
      "pper": 2044,
      "Ġdelivery": 2045,
      "ding": 2046,
      "ioni": 2047,
      "ĠEd": 2048,
      "Ġcomb": 2049,
      "irls": 2050,
      "Ġshoes": 2051,
      "ailable": 2052,
      "tr": 2053,
      "39": 2054,
      "ml": 2055,
      "onder": 2056,
      "aff": 2057,
      "Ġnach": 2058,
      "ived": 2059,
      "iment": 2060,
      "Ġcould": 2061,
      "Ġpu": 2062,
      "Ġfilm": 2063,
      "ende": 2064,
      "ĠAm": 2065,
      "Ġcas": 2066,
      "On": 2067,
      "idad": 2068,
      "ĠEuro": 2069,
      "cip": 2070,
      "itz": 2071,
      "Ġ2021": 2072,
      "iert": 2073,
      "Ġtool": 2074,
      "Comp": 2075,
      "Hardcover": 2076,
      "Bay": 2077,
      "VE": 2078,
      "Mod": 2079,
      "ĠEn": 2080,
      "Ġprocess": 2081,
      "Ġred": 2082,
      "onda": 2083,
      "ello": 2084,
      "rome": 2085,
      "44": 2086,
      "Ġide": 2087,
      "ono": 2088,
      "29": 2089,
      "ined": 2090,
      "Ġservice": 2091,
      "ware": 2092,
      "igital": 2093,
      "iche": 2094,
      "bum": 2095,
      "ĠPan": 2096,
      "ouble": 2097,
      "Ġhard": 2098,
      "Ad": 2099,
      "RA": 2100,
      "Ġsom": 2101,
      "Ġhistory": 2102,
      "Ġou": 2103,
      "68": 2104,
      "ĠVol": 2105,
      "Ġinformation": 2106,
      "ule": 2107,
      "Ġport": 2108,
      "alax": 2109,
      "Ġcolor": 2110,
      "erv": 2111,
      "hip": 2112,
      "Ġblue": 2113,
      "Ġincluding": 2114,
      "Ġsame": 2115,
      "Ġappro": 2116,
      "ĠRE": 2117,
      "Ġfound": 2118,
      "hl": 2119,
      "uy": 2120,
      "ĠModel": 2121,
      "Ġbeing": 2122,
      "iece": 2123,
      "ĠBL": 2124,
      "ĠWomen": 2125,
      "Ġfast": 2126,
      "oral": 2127,
      "ĠCD": 2128,
      "Ġleather": 2129,
      "ford": 2130,
      "Ġpartic": 2131,
      "otton": 2132,
      "oint": 2133,
      "Ġquestions": 2134,
      "Ġfront": 2135,
      "ĠJe": 2136,
      "Ġsilver": 2137,
      "Herst": 2138,
      "ĠKn": 2139,
      "ito": 2140,
      "udio": 2141,
      "Ġdep": 2142,
      "used": 2143,
      "ically": 2144,
      "mente": 2145,
      "Ã²": 2146,
      "Ġcult": 2147,
      "Ġsie": 2148,
      "unic": 2149,
      "gi": 2150,
      "Ġu": 2151,
      "aug": 2152,
      "work": 2153,
      "ways": 2154,
      "Ġnever": 2155,
      "abric": 2156,
      "utz": 2157,
      "ential": 2158,
      "Ġthose": 2159,
      "ĠRes": 2160,
      "ï¿½ï¿½": 2161,
      "Ġship": 2162,
      "Ã¶r": 2163,
      "ĠBo": 2164,
      "ete": 2165,
      "ĠPower": 2166,
      "Ġkit": 2167,
      "ocket": 2168,
      "ĠFOR": 2169,
      "Ġ90": 2170,
      "alaxy": 2171,
      "ĠChar": 2172,
      "cor": 2173,
      "Ġri": 2174,
      "Ġpos": 2175,
      "ĠChe": 2176,
      "ided": 2177,
      "Ġsoft": 2178,
      "Ġworks": 2179,
      "ĠAND": 2180,
      "ĠMens": 2181,
      "ĠPlay": 2182,
      "New": 2183,
      "RI": 2184,
      "Ġmult": 2185,
      "ĠLa": 2186,
      "avid": 2187,
      "Or": 2188,
      "66": 2189,
      "ĠGreen": 2190,
      "mon": 2191,
      "sk": 2192,
      "Ġunderstand": 2193,
      "ĠHigh": 2194,
      "Ġparts": 2195,
      "Ġworking": 2196,
      "Ġkey": 2197,
      "Ġcontrol": 2198,
      "aux": 2199,
      "lectric": 2200,
      "Ġill": 2201,
      "Ġseller": 2202,
      "TER": 2203,
      "85": 2204,
      "ĠPack": 2205,
      "Ġvor": 2206,
      "oon": 2207,
      "ĠOut": 2208,
      "ĠON": 2209,
      "Ġreally": 2210,
      "eder": 2211,
      "CD": 2212,
      "ida": 2213,
      "Great": 2214,
      "no": 2215,
      "urg": 2216,
      "wh": 2217,
      "la": 2218,
      "Ġstart": 2219,
      "cs": 2220,
      "ios": 2221,
      "ument": 2222,
      "oto": 2223,
      "Ġpot": 2224,
      ".:": 2225,
      "ĠHead": 2226,
      "77": 2227,
      "ĠGer": 2228,
      "Ġprop": 2229,
      "Ġbei": 2230,
      "Ġorgan": 2231,
      "met": 2232,
      "ĠReg": 2233,
      "agen": 2234,
      "Ġbra": 2235,
      "cent": 2236,
      "itu": 2237,
      "mar": 2238,
      "Ġbase": 2239,
      "Ġaccess": 2240,
      "Ġmaterial": 2241,
      "ommend": 2242,
      "Ġhab": 2243,
      "95": 2244,
      "Ġrest": 2245,
      "ĠLED": 2246,
      "ĠBag": 2247,
      "ĠCom": 2248,
      "elling": 2249,
      "va": 2250,
      "ĠClass": 2251,
      "ede": 2252,
      "abel": 2253,
      "ĠFil": 2254,
      "ĠOf": 2255,
      "aul": 2256,
      "Ġcomo": 2257,
      "Ġbecause": 2258,
      "ruck": 2259,
      "umper": 2260,
      "iques": 2261,
      "Ġqui": 2262,
      "They": 2263,
      "Ġstill": 2264,
      "Ġwhile": 2265,
      "lie": 2266,
      "conom": 2267,
      "ges": 2268,
      "oup": 2269,
      "van": 2270,
      "Ġtrack": 2271,
      "Ġresearch": 2272,
      "Ġopt": 2273,
      "Ġsecond": 2274,
      "itten": 2275,
      "Ġkeep": 2276,
      "Ġshow": 2277,
      "Ġbis": 2278,
      "Ġce": 2279,
      "dukt": 2280,
      "ually": 2281,
      "etz": 2282,
      "Ġquick": 2283,
      "ael": 2284,
      "With": 2285,
      "Ġtext": 2286,
      "Ġtest": 2287,
      "zione": 2288,
      "ken": 2289,
      "cul": 2290,
      "imm": 2291,
      "ÃŁe": 2292,
      "Ġ|": 2293,
      "Ġ80": 2294,
      "ĠrÃ©": 2295,
      "Ġplace": 2296,
      "Ġavec": 2297,
      "Ġoffer": 2298,
      "oo": 2299,
      "rent": 2300,
      "ĠWorld": 2301,
      "Ġbetter": 2302,
      "proof": 2303,
      "And": 2304,
      "Ġ32": 2305,
      "De": 2306,
      "Ġboots": 2307,
      "buch": 2308,
      "ingle": 2309,
      "CT": 2310,
      "iful": 2311,
      "fic": 2312,
      "ately": 2313,
      "reg": 2314,
      "Ġbeg": 2315,
      "Ġenc": 2316,
      "Ġsci": 2317,
      "oph": 2318,
      "inen": 2319,
      "Ġbre": 2320,
      "uren": 2321,
      "ĠSE": 2322,
      "UP": 2323,
      "Ġpurchase": 2324,
      "erc": 2325,
      "ĠCle": 2326,
      "Ġ22": 2327,
      "Ġfollow": 2328,
      "Ġ35": 2329,
      "Ġanal": 2330,
      "ĠUnivers": 2331,
      "door": 2332,
      "Ġwrit": 2333,
      "ustr": 2334,
      "ĠBar": 2335,
      "cht": 2336,
      "Ġrad": 2337,
      "AGE": 2338,
      "There": 2339,
      "Ġuns": 2340,
      "ellow": 2341,
      "itar": 2342,
      "ĠÃ¼ber": 2343,
      "atible": 2344,
      "ĠCap": 2345,
      "ords": 2346,
      "69": 2347,
      "37": 2348,
      "Ġdr": 2349,
      "LY": 2350,
      "ĠGod": 2351,
      "ideo": 2352,
      "Ġcreat": 2353,
      "aschen": 2354,
      "ham": 2355,
      "Ã¤r": 2356,
      "ails": 2357,
      "ibr": 2358,
      "Ġlet": 2359,
      "aving": 2360,
      "ordan": 2361,
      "Ġxl": 2362,
      "uine": 2363,
      "Ġpur": 2364,
      "Ġmovie": 2365,
      "autiful": 2366,
      "ĠShe": 2367,
      "Ġtoo": 2368,
      "ried": 2369,
      "2020": 2370,
      "Ã¨re": 2371,
      "88": 2372,
      "ĠSuper": 2373,
      "Ġfact": 2374,
      "IZ": 2375,
      "ĠCH": 2376,
      "Ġlast": 2377,
      "Ġmet": 2378,
      "ugg": 2379,
      "Ġbar": 2380,
      "Ġfeel": 2381,
      "Ġ2020": 2382,
      "Ġcre": 2383,
      "Ã¶n": 2384,
      "add": 2385,
      "Ġbooks": 2386,
      "Ġ2016": 2387,
      "enden": 2388,
      "med": 2389,
      "Der": 2390,
      "lement": 2391,
      "ĠXL": 2392,
      "Ġdell": 2393,
      "Ġchildren": 2394,
      "Ġprin": 2395,
      "2019": 2396,
      "Ġwird": 2397,
      "shirt": 2398,
      "Herstell": 2399,
      "Ġhold": 2400,
      "ĠeBay": 2401,
      "ks": 2402,
      "itor": 2403,
      "Ġgrand": 2404,
      "Ġwithout": 2405,
      "Ġ36": 2406,
      "ĠShirt": 2407,
      "Ġaround": 2408,
      "ipped": 2409,
      "ĠAs": 2410,
      "ĠIS": 2411,
      "Ġclear": 2412,
      "Ġmach": 2413,
      "2018": 2414,
      "Ġ38": 2415,
      "ĠBO": 2416,
      "Ġpri": 2417,
      "Ġsocial": 2418,
      "Ġprofess": 2419,
      "aled": 2420,
      "Sp": 2421,
      "CK": 2422,
      "Ġexam": 2423,
      "GE": 2424,
      "unning": 2425,
      "ota": 2426,
      "urt": 2427,
      "Ġ2018": 2428,
      "inyl": 2429,
      "Ġha": 2430,
      "ĠHol": 2431,
      "ersey": 2432,
      "key": 2433,
      "Ġtrad": 2434,
      "Ġusing": 2435,
      "ootball": 2436,
      "Ġphone": 2437,
      "Ġnumber": 2438,
      "Ġ2017": 2439,
      "izz": 2440,
      "Ġmess": 2441,
      "imal": 2442,
      "):": 2443,
      "Ã¤nd": 2444,
      "cel": 2445,
      "wood": 2446,
      "ola": 2447,
      "ativ": 2448,
      "Ġcontin": 2449,
      "Ġthink": 2450,
      "band": 2451,
      "Ġfa": 2452,
      "hic": 2453,
      "Ġdoll": 2454,
      "ernummer": 2455,
      "Ã¹": 2456,
      "ĠFront": 2457,
      "Ġsuccess": 2458,
      "car": 2459,
      "Ġeffect": 2460,
      "UM": 2461,
      "icy": 2462,
      "vert": 2463,
      "ethod": 2464,
      "ERS": 2465,
      "ivid": 2466,
      "side": 2467,
      "Aut": 2468,
      "uter": 2469,
      "Herstellernummer": 2470,
      "undle": 2471,
      "ription": 2472,
      "ora": 2473,
      "intendo": 2474,
      "Ġdue": 2475,
      "Ġglass": 2476,
      "ĠLarge": 2477,
      "ude": 2478,
      "Ã©n": 2479,
      "ĠVers": 2480,
      "Ġinterest": 2481,
      "ots": 2482,
      "Ġturn": 2483,
      "ondition": 2484,
      "Ġ2015": 2485,
      "ĠWork": 2486,
      "IF": 2487,
      "imited": 2488,
      "geb": 2489,
      "ĠDr": 2490,
      "Ġcheck": 2491,
      "ĠFig": 2492,
      "43": 2493,
      "cher": 2494,
      "Ġbody": 2495,
      "Ġmax": 2496,
      "ĠWill": 2497,
      "ĠÃ©t": 2498,
      "ucht": 2499,
      "Ġimportant": 2500,
      "hen": 2501,
      "Ġprom": 2502,
      "placement": 2503,
      "nike": 2504,
      "yes": 2505,
      "ched": 2506,
      "iones": 2507,
      "ries": 2508,
      "ĠLeg": 2509,
      "ĠStand": 2510,
      "aging": 2511,
      "Ġaddition": 2512,
      "Ġpan": 2513,
      "ici": 2514,
      "Ġrecommend": 2515,
      "Ġaff": 2516,
      "ĠYou": 2517,
      "Ġwurde": 2518,
      "Ġyoung": 2519,
      "ĠLong": 2520,
      "Ġopen": 2521,
      "She": 2522,
      "Ġ2019": 2523,
      "Product": 2524,
      "Ġdei": 2525,
      "These": 2526,
      "TH": 2527,
      "67": 2528,
      "ĠOriginal": 2529,
      "ĠHD": 2530,
      "Con": 2531,
      "OP": 2532,
      "Su": 2533,
      "Ã¼n": 2534,
      "aces": 2535,
      "ichael": 2536,
      "49": 2537,
      "Ġsat": 2538,
      "itÃł": 2539,
      "ĠMod": 2540,
      "Ġ2010": 2541,
      "Ġ2012": 2542,
      "ye": 2543,
      "arden": 2544,
      "ĠAL": 2545,
      "ĠBra": 2546,
      "Ġfur": 2547,
      "ĠAus": 2548,
      "formance": 2549,
      "ĠMax": 2550,
      "str": 2551,
      "Ġspec": 2552,
      "thers": 2553,
      "Ãº": 2554,
      "Ġzur": 2555,
      "No": 2556,
      "ĠWatch": 2557,
      "ili": 2558,
      "Ġgi": 2559,
      "Ġbas": 2560,
      "Sch": 2561,
      "TS": 2562,
      "Ġconc": 2563,
      "ensive": 2564,
      "rodu": 2565,
      "osa": 2566,
      "Ġclean": 2567,
      "ĠMark": 2568,
      "utter": 2569,
      "Ġprint": 2570,
      "olt": 2571,
      "akers": 2572,
      "my": 2573,
      "Ġ70": 2574,
      "TE": 2575,
      "ads": 2576,
      "ission": 2577,
      "ista": 2578,
      "ASE": 2579,
      "ARD": 2580,
      "ison": 2581,
      "Ġ2011": 2582,
      "Ġ2014": 2583,
      "Ġnov": 2584,
      "ĠCON": 2585,
      "ĠAng": 2586,
      "46": 2587,
      "itive": 2588,
      "ĠRC": 2589,
      "warz": 2590,
      "womens": 2591,
      "river": 2592,
      "ena": 2593,
      "Ġyear": 2594,
      ".\"": 2595,
      "ĠColor": 2596,
      "Ã¡s": 2597,
      "ised": 2598,
      "Ġprovides": 2599,
      "room": 2600,
      "Ġ2013": 2601,
      "ĠStar": 2602,
      "ĠLot": 2603,
      "Ġband": 2604,
      "Ġspecial": 2605,
      "Ġ[": 2606,
      "Ġequ": 2607,
      "acy": 2608,
      "Ã©t": 2609,
      "gl": 2610,
      "ĠCent": 2611,
      "Ġjour": 2612,
      "ĠPe": 2613,
      "alls": 2614,
      "ima": 2615,
      "Ġdisp": 2616,
      "Ġpublic": 2617,
      "ALL": 2618,
      "mark": 2619,
      "01": 2620,
      "ĠMini": 2621,
      "Ġfut": 2622,
      "Ġalways": 2623,
      "arbe": 2624,
      "urb": 2625,
      "umb": 2626,
      "ination": 2627,
      "ĠSil": 2628,
      "Ġsus": 2629,
      "DVD": 2630,
      "ference": 2631,
      "App": 2632,
      "Ġoper": 2633,
      "72": 2634,
      "Ġduring": 2635,
      "oria": 2636,
      "ĠPre": 2637,
      "ĠiPhone": 2638,
      "ocus": 2639,
      "Ġcou": 2640,
      "utsch": 2641,
      "ĠRet": 2642,
      "Ġcards": 2643,
      "gel": 2644,
      "ills": 2645,
      "anger": 2646,
      "XL": 2647,
      "Ġside": 2648,
      "79": 2649,
      "How": 2650,
      "Ġincluded": 2651,
      "ĠTH": 2652,
      "Ġris": 2653,
      "So": 2654,
      "Ġthree": 2655,
      "rame": 2656,
      "UE": 2657,
      "iff": 2658,
      "ĠPat": 2659,
      "ĠWater": 2660,
      "Ġstar": 2661,
      "iber": 2662,
      "face": 2663,
      "Ġavailable": 2664,
      "aged": 2665,
      "inger": 2666,
      "ga": 2667,
      "Ġenv": 2668,
      "ĠSteel": 2669,
      "iles": 2670,
      "ards": 2671,
      "dr": 2672,
      "Ġissu": 2673,
      "nect": 2674,
      "ireless": 2675,
      "ache": 2676,
      "ander": 2677,
      "pps": 2678,
      "ĠCal": 2679,
      "range": 2680,
      "When": 2681,
      "ĠName": 2682,
      "Ã©r": 2683,
      "Ġauto": 2684,
      "Ġbit": 2685,
      "ĠGame": 2686,
      "kle": 2687,
      "Ġzum": 2688,
      "orage": 2689,
      "ision": 2690,
      "Ġeiner": 2691,
      "Ġhuman": 2692,
      "ym": 2693,
      "Ġsound": 2694,
      "Ġlang": 2695,
      "IA": 2696,
      "Ġteach": 2697,
      "Ġ28": 2698,
      "Ġpoint": 2699,
      "Ġ2008": 2700,
      "Per": 2701,
      "Ġlov": 2702,
      "je": 2703,
      "clus": 2704,
      "self": 2705,
      "orge": 2706,
      "ĠOne": 2707,
      "42": 2708,
      "phone": 2709,
      "bay": 2710,
      "Ġage": 2711,
      "joy": 2712,
      "ori": 2713,
      "Ġbattery": 2714,
      "ires": 2715,
      "OU": 2716,
      "iven": 2717,
      "Ġmodern": 2718,
      "Ãª": 2719,
      "31": 2720,
      "Ġwie": 2721,
      "Ġmusic": 2722,
      "asket": 2723,
      "IE": 2724,
      "ĠUSB": 2725,
      "ĠâĢĵ": 2726,
      "Ġfre": 2727,
      "uet": 2728,
      "now": 2729,
      "Ã¨s": 2730,
      "Ġtable": 2731,
      "ĠBer": 2732,
      "asure": 2733,
      "ĠSystem": 2734,
      "imate": 2735,
      "ĠBE": 2736,
      "amen": 2737,
      "ĠNot": 2738,
      "Ġ2007": 2739,
      "Ã¤n": 2740,
      "black": 2741,
      "ĠTo": 2742,
      "Ġschool": 2743,
      "ĠOR": 2744,
      "Ġfinal": 2745,
      "pack": 2746,
      "hn": 2747,
      "Ġcho": 2748,
      "anks": 2749,
      "Ġshort": 2750,
      "Ġ21": 2751,
      "ĠPost": 2752,
      "pre": 2753,
      "KE": 2754,
      "ha": 2755,
      "INE": 2756,
      "ĠTrans": 2757,
      "ĠWhe": 2758,
      "gu": 2759,
      "iller": 2760,
      "ĠSec": 2761,
      "ĠBrit": 2762,
      "ĠGen": 2763,
      "lock": 2764,
      "Ġstudents": 2765,
      "Ġalle": 2766,
      "umin": 2767,
      "hand": 2768,
      "ĠLE": 2769,
      "IGH": 2770,
      "Ġsoci": 2771,
      "ĠJacket": 2772,
      "Ġwood": 2773,
      "Ġfew": 2774,
      "Ġjeans": 2775,
      "ych": 2776,
      "Ġbrand": 2777,
      "Te": 2778,
      "udi": 2779,
      "Style": 2780,
      "Ġ!": 2781,
      "Marke": 2782,
      "ali": 2783,
      "ĠChristmas": 2784,
      "ĠWood": 2785,
      "irit": 2786,
      "Ġdurch": 2787,
      "EAN": 2788,
      "rench": 2789,
      "Ġ500": 2790,
      "ARE": 2791,
      "Ġface": 2792,
      "Ġaddress": 2793,
      "sm": 2794,
      "gg": 2795,
      "Ġhappy": 2796,
      "Ġheart": 2797,
      "xl": 2798,
      "ĠPort": 2799,
      "ciÃ³n": 2800,
      "ĠIT": 2801,
      "ITH": 2802,
      "Ġ45": 2803,
      "Ġexcellent": 2804,
      "EST": 2805,
      "300": 2806,
      "ww": 2807,
      "Des": 2808,
      "76": 2809,
      "ados": 2810,
      "Ġbott": 2811,
      "atur": 2812,
      "rim": 2813,
      "EU": 2814,
      "pport": 2815,
      "ĠBrown": 2816,
      "Ġprovide": 2817,
      "ĠTaschen": 2818,
      "ĠJapan": 2819,
      "uts": 2820,
      "ights": 2821,
      "Ġident": 2822,
      "ension": 2823,
      "ĠBrand": 2824,
      "Ġ2009": 2825,
      "Ġut": 2826,
      "ĠOff": 2827,
      "Ġexperience": 2828,
      "org": 2829,
      "fÃ¼": 2830,
      "GO": 2831,
      "oz": 2832,
      "Ġmini": 2833,
      "ĠMotor": 2834,
      "vi": 2835,
      "schl": 2836,
      "ĠWind": 2837,
      "Ġsil": 2838,
      "ĠMus": 2839,
      "Ġguide": 2840,
      "ĠMag": 2841,
      "rage": 2842,
      "Ġ2000": 2843,
      "ems": 2844,
      "Ġsent": 2845,
      "CE": 2846,
      "Ġresult": 2847,
      "asc": 2848,
      "not": 2849,
      "ainless": 2850,
      "Das": 2851,
      "very": 2852,
      "mi": 2853,
      "Ġpers": 2854,
      "Dis": 2855,
      "Ġalla": 2856,
      "iod": 2857,
      "agement": 2858,
      "Ġcour": 2859,
      "ĠEin": 2860,
      "hÃ¤": 2861,
      "val": 2862,
      "Ġwear": 2863,
      "itÃ©": 2864,
      "ends": 2865,
      "Ġstick": 2866,
      "ĠBack": 2867,
      "ateg": 2868,
      "Ġinch": 2869,
      "WT": 2870,
      "Ġsupport": 2871,
      "zen": 2872,
      "74": 2873,
      "2017": 2874,
      "iled": 2875,
      "hent": 2876,
      "Ġera": 2877,
      "iÃŁ": 2878,
      "ples": 2879,
      "Ġcomplete": 2880,
      "Ġ2006": 2881,
      "Ġbig": 2882,
      "ario": 2883,
      "mat": 2884,
      "Ġvia": 2885,
      "ĠTitle": 2886,
      "Ġphotos": 2887,
      "Ġpas": 2888,
      "ĠUSA": 2889,
      "Ġsure": 2890,
      "Ġpast": 2891,
      "ĠGra": 2892,
      "Ġcir": 2893,
      "lichen": 2894,
      "ĠInt": 2895,
      "Ġ42": 2896,
      "Ġmoney": 2897,
      "ajor": 2898,
      "ua": 2899,
      "uge": 2900,
      "acing": 2901,
      "Ġfran": 2902,
      "Ġreceived": 2903,
      "olid": 2904,
      "dis": 2905,
      "uetooth": 2906,
      "ĠAuto": 2907,
      "Ġpress": 2908,
      "Ġstyle": 2909,
      "oul": 2910,
      "IB": 2911,
      "ÂłÂł": 2912,
      "Ġcollect": 2913,
      "Ġma": 2914,
      "Ġpayment": 2915,
      "Ġpaint": 2916,
      "ula": 2917,
      "liche": 2918,
      "ĠUp": 2919,
      "Ġocc": 2920,
      "ĠCor": 2921,
      "ishing": 2922,
      "Ġdescrib": 2923,
      "zm": 2924,
      "ĠVal": 2925,
      "Ġunter": 2926,
      "OK": 2927,
      "Ġtoget": 2928,
      "ĠDVD": 2929,
      "Ġtogether": 2930,
      "Ġvolume": 2931,
      "Set": 2932,
      "ESS": 2933,
      "alf": 2934,
      "Ġalt": 2935,
      "eld": 2936,
      "Ġissues": 2937,
      "ĠPC": 2938,
      "Ġ48": 2939,
      "198": 2940,
      "Ġ26": 2941,
      "ĠEX": 2942,
      "Ġult": 2943,
      "mw": 2944,
      "Ne": 2945,
      "ving": 2946,
      "vin": 2947,
      "pa": 2948,
      "Ġcamp": 2949,
      "ĠMc": 2950,
      "Ġentre": 2951,
      "pecial": 2952,
      "2022": 2953,
      "71": 2954,
      "Ġmer": 2955,
      "ification": 2956,
      "ruct": 2957,
      "Ġstudy": 2958,
      "ĠHar": 2959,
      "ĠApple": 2960,
      "enc": 2961,
      "bro": 2962,
      "Ġdest": 2963,
      "ades": 2964,
      "ization": 2965,
      "Ã§": 2966,
      "ĠDesign": 2967,
      "Ġmount": 2968,
      "can": 2969,
      "Ġeinem": 2970,
      "Ġconsider": 2971,
      "ELL": 2972,
      "ĠUN": 2973,
      "Ġpersonal": 2974,
      "Ġdal": 2975,
      "cedes": 2976,
      "ables": 2977,
      "Ġincludes": 2978,
      "Ġproducts": 2979,
      "Ġaccept": 2980,
      "ĠTw": 2981,
      "ĠTR": 2982,
      "Ġeinen": 2983,
      "Ġfu": 2984,
      "ras": 2985,
      "Ġhealth": 2986,
      "ogo": 2987,
      "Ġnur": 2988,
      "II": 2989,
      "Qu": 2990,
      "Produkt": 2991,
      "Ġview": 2992,
      "ĠYork": 2993,
      "ILL": 2994,
      "Ġvalue": 2995,
      "ama": 2996,
      "vd": 2997,
      "Ġrange": 2998,
      "98": 2999,
      "Ġfar": 3000,
      "justable": 3001,
      "Ġgive": 3002,
      "Ġline": 3003,
      "ĠFit": 3004,
      "ĠTaschenbuch": 3005,
      "kl": 3006,
      "ĠStud": 3007,
      "ĠDE": 3008,
      "ths": 3009,
      "Ġmat": 3010,
      "ĠAc": 3011,
      "irm": 3012,
      "Ġans": 3013,
      "Ġchange": 3014,
      "Ġjob": 3015,
      "Character": 3016,
      "ALE": 3017,
      "Ġmakes": 3018,
      "ĠEurope": 3019,
      "Ġengine": 3020,
      "Ġapplic": 3021,
      "anc": 3022,
      "aps": 3023,
      "iano": 3024,
      "ĠMult": 3025,
      "bon": 3026,
      "Ġless": 3027,
      "Ġwind": 3028,
      "Art": 3029,
      "Ġrelations": 3030,
      "Ġmotor": 3031,
      "ĠRem": 3032,
      "rat": 3033,
      "Ġchang": 3034,
      "resent": 3035,
      "Ġsens": 3036,
      "2016": 3037,
      "ookie": 3038,
      "Ġgreen": 3039,
      "ĠRad": 3040,
      "Ġinternational": 3041,
      "este": 3042,
      "Ġbuild": 3043,
      "ĠUlt": 3044,
      "Ġtimes": 3045,
      "ĠFre": 3046,
      "fol": 3047,
      "Ġrespons": 3048,
      "Ġchar": 3049,
      "enza": 3050,
      "Ġdev": 3051,
      "rier": 3052,
      "verse": 3053,
      "po": 3054,
      "ikel": 3055,
      "olar": 3056,
      "ba": 3057,
      "Ġring": 3058,
      "Ġarriv": 3059,
      "Ġmethod": 3060,
      "Ġtry": 3061,
      "hentic": 3062,
      "ĠGalaxy": 3063,
      "iene": 3064,
      "gn": 3065,
      "ertain": 3066,
      "itter": 3067,
      "Ġactiv": 3068,
      "ences": 3069,
      "Ġcrit": 3070,
      "Color": 3071,
      "Ġ34": 3072,
      "ĠAS": 3073,
      "ological": 3074,
      "schaft": 3075,
      "Ġfue": 3076,
      "etting": 3077,
      "Ġsong": 3078,
      "Ġ2005": 3079,
      "ĠComm": 3080,
      "ensch": 3081,
      "Ġeconom": 3082,
      "Ġfabric": 3083,
      "Ġexpect": 3084,
      "ĠPrint": 3085,
      "Ã©es": 3086,
      "Ġsaf": 3087,
      "500": 3088,
      "erk": 3089,
      "ĠNOT": 3090,
      "Ġfour": 3091,
      "Ġbed": 3092,
      "cord": 3093,
      "ĠAust": 3094,
      "ĠZe": 3095,
      "ĠUs": 3096,
      "iti": 3097,
      "Ġmedium": 3098,
      "enk": 3099,
      "ĠOEM": 3100,
      "Ġnext": 3101,
      "avor": 3102,
      "ĠTool": 3103,
      "Ġcd": 3104,
      "Ġfield": 3105,
      "Ġlevel": 3106,
      "Ġneck": 3107,
      "idd": 3108,
      "ĠLine": 3109,
      "fit": 3110,
      "ĠWITH": 3111,
      "ĠDel": 3112,
      "ĠKing": 3113,
      "Ġ195": 3114,
      "Ġmir": 3115,
      "Ġland": 3116,
      "Ġetc": 3117,
      "Ġlooking": 3118,
      "ils": 3119,
      "Ġbeh": 3120,
      "ebra": 3121,
      "ĠJack": 3122,
      "obile": 3123,
      "sole": 3124,
      "ĠGlass": 3125,
      "reet": 3126,
      "ryst": 3127,
      "ified": 3128,
      "05": 3129,
      "Ġinclude": 3130,
      "ĠMount": 3131,
      "ĠPink": 3132,
      "ĠJahr": 3133,
      "Ġfeatures": 3134,
      "ĠShoes": 3135,
      "Ġdiscover": 3136,
      "ĠFull": 3137,
      "My": 3138,
      "Ġweek": 3139,
      "ĠCollection": 3140,
      "Ġhere": 3141,
      "ona": 3142,
      "ases": 3143,
      "ĠExt": 3144,
      "Ġask": 3145,
      "Ġoffers": 3146,
      "anta": 3147,
      "Ġalbum": 3148,
      "ris": 3149,
      "Ġillustr": 3150,
      "Ġcoll": 3151,
      "ĠBand": 3152,
      "Ġcamera": 3153,
      "Ġesc": 3154,
      "Good": 3155,
      "Ġfigure": 3156,
      "63": 3157,
      "Ġliter": 3158,
      "ĠMaterial": 3159,
      "Ġsem": 3160,
      "73": 3161,
      "2015": 3162,
      "Ġord": 3163,
      "Ġthought": 3164,
      "Ġrefund": 3165,
      "Ġvo": 3166,
      "isf": 3167,
      "ĠProte": 3168,
      "Ġcu": 3169,
      "Ġbeautiful": 3170,
      "Ġenjoy": 3171,
      "Ġcomes": 3172,
      "erm": 3173,
      "Ġens": 3174,
      "ĠHome": 3175,
      "ĠSport": 3176,
      "ĠpiÃ¹": 3177,
      "Ġextra": 3178,
      "icial": 3179,
      "What": 3180,
      "onde": 3181,
      "ĠItal": 3182,
      "Ġcat": 3183,
      "61": 3184,
      "CO": 3185,
      "ayer": 3186,
      "ĠBR": 3187,
      "ĠÂ«": 3188,
      "Ġpictures": 3189,
      "chan": 3190,
      "edback": 3191,
      "Ġtre": 3192,
      "Ġdefin": 3193,
      "inning": 3194,
      "Ġap": 3195,
      "Ãĥ": 3196,
      "Ġleft": 3197,
      "Ġanother": 3198,
      "Tr": 3199,
      "overn": 3200,
      "Ġtro": 3201,
      "iding": 3202,
      "ĠSign": 3203,
      "ĠDI": 3204,
      "volution": 3205,
      "Very": 3206,
      "ĠControl": 3207,
      "star": 3208,
      "Ġdoor": 3209,
      "Ġstories": 3210,
      "imo": 3211,
      "aist": 3212,
      "Ġgrow": 3213,
      "iction": 3214,
      "Ġorig": 3215,
      "ellen": 3216,
      "Ġgolf": 3217,
      "Ġsuit": 3218,
      "Ġintrodu": 3219,
      "uto": 3220,
      "sten": 3221,
      "ended": 3222,
      "ANT": 3223,
      "Ġmind": 3224,
      "Ġwide": 3225,
      "Ġput": 3226,
      "ĠBro": 3227,
      "IZE": 3228,
      "stit": 3229,
      "Ġsa": 3230,
      "....": 3231,
      "Ġchall": 3232,
      "41": 3233,
      "ristmas": 3234,
      "Ġvi": 3235,
      "lished": 3236,
      "Ġfac": 3237,
      "ival": 3238,
      "Ġrecord": 3239,
      "ieve": 3240,
      "gt": 3241,
      "Ġdirect": 3242,
      "stand": 3243,
      "Ġwheels": 3244,
      "ops": 3245,
      "ĠUnited": 3246,
      "ĠInter": 3247,
      "new": 3248,
      "iphone": 3249,
      "Ġwomens": 3250,
      "Ġcharg": 3251,
      "Ġthings": 3252,
      "Ġgot": 3253,
      "Ġpsa": 3254,
      "oud": 3255,
      "Ġeduc": 3256,
      "Ġparte": 3257,
      "Ġtopps": 3258,
      "amic": 3259,
      "Ġ2004": 3260,
      "Ġmot": 3261,
      "Modell": 3262,
      "Ġdelle": 3263,
      "Ġdiv": 3264,
      "Ġonce": 3265,
      "Ġsold": 3266,
      "Ġdall": 3267,
      "ASS": 3268,
      "ko": 3269,
      "lev": 3270,
      "yd": 3271,
      "ĠHist": 3272,
      "ĠSleeve": 3273,
      "Ġnom": 3274,
      "Ġaction": 3275,
      "ability": 3276,
      "ises": 3277,
      "Ġhistor": 3278,
      "ĠPL": 3279,
      "ĠGood": 3280,
      "eater": 3281,
      "Ġbow": 3282,
      "istic": 3283,
      "Ser": 3284,
      "ething": 3285,
      "allet": 3286,
      "Ġsecret": 3287,
      "62": 3288,
      "Ġkann": 3289,
      "reh": 3290,
      "ĠEnglish": 3291,
      "Ġlow": 3292,
      "Ġscreen": 3293,
      "ty": 3294,
      "Ġsono": 3295,
      "Ġprog": 3296,
      "ags": 3297,
      "Ġled": 3298,
      "gli": 3299,
      "ny": 3300,
      "Ġbought": 3301,
      "Ġsince": 3302,
      "Ġpossible": 3303,
      "umer": 3304,
      "immer": 3305,
      "Ġeas": 3306,
      "Ġ2022": 3307,
      "ĠPri": 3308,
      "Ġfocus": 3309,
      "action": 3310,
      "berg": 3311,
      "ĠPur": 3312,
      "Compatible": 3313,
      "Ġmom": 3314,
      "arch": 3315,
      "ource": 3316,
      "ragon": 3317,
      "roller": 3318,
      "oro": 3319,
      "Ð¾": 3320,
      "'ll": 3321,
      "ĠCondition": 3322,
      "Ġproblems": 3323,
      "ĠFe": 3324,
      "Gen": 3325,
      "iste": 3326,
      "Ġunt": 3327,
      "Ġdevelopment": 3328,
      "ĠToy": 3329,
      "omas": 3330,
      "ĠFam": 3331,
      "Ġinf": 3332,
      "Ġ44": 3333,
      "Ġdog": 3334,
      "ĠPay": 3335,
      "Ġcountry": 3336,
      "Ġsont": 3337,
      "Ġmaking": 3338,
      "Ġcoat": 3339,
      "Ġshipped": 3340,
      "ktion": 3341,
      "Ġbad": 3342,
      "Ġlocal": 3343,
      "ĠÂ£": 3344,
      "irth": 3345,
      "Ġrom": 3346,
      "Ġproblem": 3347,
      "hicle": 3348,
      "Ġarm": 3349,
      "Es": 3350,
      "abor": 3351,
      "ilos": 3352,
      "ager": 3353,
      "nal": 3354,
      "ĠPlus": 3355,
      "Ġplan": 3356,
      "Ġcommun": 3357,
      "MA": 3358,
      "arten": 3359,
      "Ġsteel": 3360,
      "amm": 3361,
      "Ġearly": 3362,
      "ĠBase": 3363,
      "Cl": 3364,
      "ĠDavid": 3365,
      "mann": 3366,
      "Ġmajor": 3367,
      "ka": 3368,
      "ĠCL": 3369,
      "Ġtri": 3370,
      "iners": 3371,
      "elb": 3372,
      "Ġinstall": 3373,
      "uth": 3374,
      "Ġnote": 3375,
      "Ġhouse": 3376,
      "Ġindivid": 3377,
      "Ġautom": 3378,
      "ÂłĠ": 3379,
      "estig": 3380,
      "keit": 3381,
      "ulation": 3382,
      "UD": 3383,
      "ii": 3384,
      "gio": 3385,
      "ĠAss": 3386,
      "Ġ300": 3387,
      "âĢ¢": 3388,
      "ja": 3389,
      "ĠMer": 3390,
      "Ġhours": 3391,
      "atin": 3392,
      "oom": 3393,
      "ĠPRO": 3394,
      "ĠAmerica": 3395,
      "Hz": 3396,
      "ĠRare": 3397,
      "ĠInclud": 3398,
      "ĠLength": 3399,
      "Ġkids": 3400,
      "ĠRep": 3401,
      "Ġstat": 3402,
      "MW": 3403,
      "150": 3404,
      "47": 3405,
      "ĠGrey": 3406,
      "ĠPR": 3407,
      "obal": 3408,
      "Ġrun": 3409,
      "tre": 3410,
      "AV": 3411,
      "Ġdiscuss": 3412,
      "Ġnight": 3413,
      "Ġrook": 3414,
      "Ġalong": 3415,
      "Ġapproach": 3416,
      "illa": 3417,
      "ĠSmall": 3418,
      "idth": 3419,
      "uage": 3420,
      "ares": 3421,
      "ĠTV": 3422,
      "Ġhood": 3423,
      "Ġ--": 3424,
      "fully": 3425,
      "ged": 3426,
      "Ġsitu": 3427,
      "SP": 3428,
      "Ġmetal": 3429,
      "ĠFree": 3430,
      "estern": 3431,
      "AK": 3432,
      "Ġment": 3433,
      "BO": 3434,
      "Ġbecome": 3435,
      "Ġshorts": 3436,
      "ĠGerman": 3437,
      "ĠAccess": 3438,
      "tegr": 3439,
      "ĠAf": 3440,
      "Ġop": 3441,
      "ĠGreat": 3442,
      "Ġrear": 3443,
      "Ġaway": 3444,
      "Ġich": 3445,
      "Ġmain": 3446,
      "alog": 3447,
      "Ġinfl": 3448,
      "2014": 3449,
      "Ġperiod": 3450,
      "SE": 3451,
      "Ġeverything": 3452,
      "ribut": 3453,
      "Ġtoy": 3454,
      "ĠAC": 3455,
      "UST": 3456,
      "oles": 3457,
      "ites": 3458,
      "Ġdata": 3459,
      "emb": 3460,
      "ĠDon": 3461,
      "resh": 3462,
      "ĠKey": 3463,
      "press": 3464,
      "Ġwritten": 3465,
      "ĠPet": 3466,
      "ĠRel": 3467,
      "Ġenviron": 3468,
      "ĠMetal": 3469,
      "Ġtakes": 3470,
      "DR": 3471,
      "Ġball": 3472,
      "ully": 3473,
      "ells": 3474,
      "agnet": 3475,
      "Ġstate": 3476,
      "Ġpolitical": 3477,
      "set": 3478,
      "Ġsleeve": 3479,
      "ĠTopp": 3480,
      "Ġconstru": 3481,
      "ĠLife": 3482,
      "Ġdeal": 3483,
      "Ġcloth": 3484,
      "NEW": 3485,
      "oke": 3486,
      "imens": 3487,
      "ĠEar": 3488,
      "ta": 3489,
      "Car": 3490,
      "Ġdass": 3491,
      "Ġself": 3492,
      "ledge": 3493,
      "asing": 3494,
      "cast": 3495,
      "ublic": 3496,
      "One": 3497,
      "ĠMedium": 3498,
      "Ġ2003": 3499,
      "Im": 3500,
      "ieren": 3501,
      "Ġothers": 3502,
      "Er": 3503,
      "weight": 3504,
      "aken": 3505,
      "ĠMin": 3506,
      "Ġdvd": 3507,
      "jo": 3508,
      "âĢĵ": 3509,
      "Book": 3510,
      "ondon": 3511,
      "lor": 3512,
      "Ġlives": 3513,
      "ĠLand": 3514,
      "Ġ27": 3515,
      "Ġsend": 3516,
      "itÃ¤t": 3517,
      "Ġindust": 3518,
      "ivo": 3519,
      "ĠGuide": 3520,
      "most": 3521,
      "Ġcame": 3522,
      "ĠMat": 3523,
      "uen": 3524,
      "Ġmiss": 3525,
      "ĠSmart": 3526,
      "ĠDay": 3527,
      "Ġhor": 3528,
      "ĠSamsung": 3529,
      "azing": 3530,
      "Ġabs": 3531,
      "Ġbi": 3532,
      "Ġcross": 3533,
      "dom": 3534,
      "Ġwir": 3535,
      "Ġdeb": 3536,
      "Ġclassic": 3537,
      "TR": 3538,
      "Ġmove": 3539,
      "da": 3540,
      "ĠPress": 3541,
      "Ġcomplet": 3542,
      "attle": 3543,
      "Ġlive": 3544,
      "08": 3545,
      "augh": 3546,
      "Ġ64": 3547,
      "Ġdef": 3548,
      "edding": 3549,
      "ĠWomens": 3550,
      "Ġserv": 3551,
      "Ġtradition": 3552,
      "endant": 3553,
      "Ġanche": 3554,
      "Ġfriends": 3555,
      "ĠRoy": 3556,
      "osed": 3557,
      "ĠSan": 3558,
      "ography": 3559,
      "ĠSur": 3560,
      "2013": 3561,
      "fil": 3562,
      "Ġstra": 3563,
      "'ve": 3564,
      "ĠSM": 3565,
      "wear": 3566,
      "REE": 3567,
      "Ġagainst": 3568,
      "Â°": 3569,
      "09": 3570,
      "Ġsport": 3571,
      "ORE": 3572,
      "omes": 3573,
      "Ġâ": 3574,
      "Ġep": 3575,
      "Ġpick": 3576,
      "Ġrookie": 3577,
      "Ġmilit": 3578,
      "ĠGar": 3579,
      "ady": 3580,
      "Ġfr": 3581,
      "Ġgirl": 3582,
      "Ant": 3583,
      "lace": 3584,
      "Ġlaw": 3585,
      "Ġcurrent": 3586,
      "rystal": 3587,
      "dy": 3588,
      "58": 3589,
      "hne": 3590,
      "plic": 3591,
      "retch": 3592,
      "enti": 3593,
      "uty": 3594,
      "Ġaccount": 3595,
      "Ġyet": 3596,
      "Ġpants": 3597,
      "Ġnice": 3598,
      "Ã¶ÃŁe": 3599,
      "oper": 3600,
      "amps": 3601,
      "ĠRO": 3602,
      "Ġrelig": 3603,
      "ĠBre": 3604,
      "ĠMy": 3605,
      "ĠSIZE": 3606,
      "ĠDie": 3607,
      "Ġsever": 3608,
      "Ġgift": 3609,
      "ĠBest": 3610,
      "Theme": 3611,
      "Ġtreat": 3612,
      "Ġconcept": 3613,
      "ieces": 3614,
      "ĠRear": 3615,
      "IO": 3616,
      "bed": 3617,
      "Ġnella": 3618,
      "ĠGener": 3619,
      "ĠDiam": 3620,
      "Ġsand": 3621,
      "ĠmÃ¡s": 3622,
      "Ġsimple": 3623,
      "SS": 3624,
      "Les": 3625,
      "Ġunique": 3626,
      "iant": 3627,
      "Am": 3628,
      "INTAGE": 3629,
      "ĠÐ": 3630,
      "head": 3631,
      "59": 3632,
      "ĠComplete": 3633,
      "ĠSim": 3634,
      "ĠSC": 3635,
      "itted": 3636,
      "Ġnorm": 3637,
      "Ġsomething": 3638,
      "ĠSoft": 3639,
      "Ġreaders": 3640,
      "iser": 3641,
      ".,": 3642,
      "uÃŁ": 3643,
      "Ġnatural": 3644,
      "ĠRookie": 3645,
      "ĠMet": 3646,
      "Ġreview": 3647,
      "ĠTable": 3648,
      "Ġwheel": 3649,
      "Pack": 3650,
      "ĠDoll": 3651,
      "ared": 3652,
      "Ġdark": 3653,
      "lot": 3654,
      "Ġreading": 3655,
      "Ġsay": 3656,
      "Black": 3657,
      "ify": 3658,
      "isher": 3659,
      "ĠMac": 3660,
      "aptop": 3661,
      "azz": 3662,
      "Ġtour": 3663,
      "Ġdom": 3664,
      "anty": 3665,
      "ago": 3666,
      "ĠAt": 3667,
      "ĠGo": 3668,
      "kn": 3669,
      "rest": 3670,
      "nder": 3671,
      "Ġteam": 3672,
      "250": 3673,
      "ysis": 3674,
      "eur": 3675,
      "Ġtoday": 3676,
      "ousers": 3677,
      "ĠCotton": 3678,
      "ances": 3679,
      "bel": 3680,
      "Ġfuture": 3681,
      "alle": 3682,
      "ĠkÃ¶n": 3683,
      "Ġpet": 3684,
      "gramm": 3685,
      "Ġhair": 3686,
      "Ġ...": 3687,
      "ĠYour": 3688,
      "ising": 3689,
      "allow": 3690,
      "Ġinsp": 3691,
      "Ġrock": 3692,
      "ently": 3693,
      "zeug": 3694,
      "gb": 3695,
      "acelet": 3696,
      "Ġscr": 3697,
      "Sc": 3698,
      "Ġ23": 3699,
      "change": 3700,
      "Part": 3701,
      "'re": 3702,
      "400": 3703,
      "Ġexact": 3704,
      "ĠDC": 3705,
      "ieder": 3706,
      "Ġarch": 3707,
      "Ġdiam": 3708,
      "ivity": 3709,
      "Not": 3710,
      "hren": 3711,
      "ipo": 3712,
      "alter": 3713,
      "ky": 3714,
      "Ġswitch": 3715,
      "do": 3716,
      "Ð°": 3717,
      "++": 3718,
      "Ġbased": 3719,
      "ĠMicro": 3720,
      "ĠCamera": 3721,
      "brid": 3722,
      "onn": 3723,
      "ĠStr": 3724,
      "Ġshows": 3725,
      "rab": 3726,
      "Ġprincip": 3727,
      "Ġjersey": 3728,
      "02": 3729,
      "ĠIm": 3730,
      "hre": 3731,
      "osp": 3732,
      "ĠAR": 3733,
      "2012": 3734,
      "Ġfine": 3735,
      "ĠTer": 3736,
      "agon": 3737,
      "hol": 3738,
      "Ġwoman": 3739,
      "After": 3740,
      "ec": 3741,
      "ĠAM": 3742,
      "ilosoph": 3743,
      "ĠWall": 3744,
      "Ġemp": 3745,
      "ĠFord": 3746,
      "Ġ2002": 3747,
      "ĠJames": 3748,
      "ĠBow": 3749,
      "aha": 3750,
      "rank": 3751,
      "ĠDigital": 3752,
      "Ġmehr": 3753,
      "atches": 3754,
      "ĠBody": 3755,
      "Ġcentury": 3756,
      "ims": 3757,
      "Ġseat": 3758,
      "Ġadditional": 3759,
      "ĠBritish": 3760,
      "Ġuntil": 3761,
      "older": 3762,
      "ubber": 3763,
      "ART": 3764,
      "iva": 3765,
      "ladies": 3766,
      "ĠAuf": 3767,
      "Ġsn": 3768,
      "Ġcharacter": 3769,
      "inc": 3770,
      "lego": 3771,
      "IGHT": 3772,
      "Ġfood": 3773,
      "house": 3774,
      "bit": 3775,
      "Ġincre": 3776,
      "Can": 3777,
      "nis": 3778,
      "ĠFR": 3779,
      "Ġfeedback": 3780,
      "Ġfollowing": 3781,
      "Ġspeed": 3782,
      "Ġ29": 3783,
      "ĠStates": 3784,
      "ĠCount": 3785,
      "bra": 3786,
      "Ġsuo": 3787,
      "Ġsehr": 3788,
      "ĠEm": 3789,
      "iefer": 3790,
      "aron": 3791,
      "Ġpicture": 3792,
      "uality": 3793,
      "ĠTopps": 3794,
      "ĠSand": 3795,
      "adem": 3796,
      "ĠAT": 3797,
      "iers": 3798,
      "Ġperformance": 3799,
      "ĠNorth": 3800,
      "2000": 3801,
      "Ġproject": 3802,
      "tempor": 3803,
      "OUR": 3804,
      "56": 3805,
      "52": 3806,
      "Ġpiece": 3807,
      "Ġstrong": 3808,
      "Ġable": 3809,
      "Ġsex": 3810,
      "Ġunderstanding": 3811,
      "eren": 3812,
      "wei": 3813,
      "Ġsal": 3814,
      "Ġcomfort": 3815,
      "Ġimpro": 3816,
      "ĠPanini": 3817,
      "ĠSouth": 3818,
      "chi": 3819,
      "06": 3820,
      "Ġcart": 3821,
      "iny": 3822,
      "ĠEN": 3823,
      "Ġreason": 3824,
      "2010": 3825,
      "ember": 3826,
      "aire": 3827,
      "idi": 3828,
      "To": 3829,
      "Ġbaby": 3830,
      "Ġsatisf": 3831,
      "Ġutil": 3832,
      "Ġallow": 3833,
      "Ġintern": 3834,
      "Ġsingle": 3835,
      "ouis": 3836,
      "igan": 3837,
      "ogn": 3838,
      "Ġple": 3839,
      "ĠJew": 3840,
      "ĠFigure": 3841,
      "iler": 3842,
      "EX": 3843,
      "osh": 3844,
      "Ġpink": 3845,
      "Ġdraw": 3846,
      "Ġdur": 3847,
      "ened": 3848,
      "enne": 3849,
      "Ġprotect": 3850,
      "vet": 3851,
      "put": 3852,
      "IPP": 3853,
      "Inter": 3854,
      "'m": 3855,
      "Ġnovel": 3856,
      "istant": 3857,
      "ronic": 3858,
      "ois": 3859,
      "eln": 3860,
      "Ġwhy": 3861,
      "Ġphys": 3862,
      "Ġmill": 3863,
      "ĠTest": 3864,
      "roy": 3865,
      "Dies": 3866,
      "lam": 3867,
      "Ġfootball": 3868,
      "ador": 3869,
      "54": 3870,
      "mal": 3871,
      "ismo": 3872,
      "ĠLu": 3873,
      "ĠPSA": 3874,
      "Ġcut": 3875,
      "ibility": 3876,
      "WE": 3877,
      "Me": 3878,
      "ĠBut": 3879,
      "Produktart": 3880,
      "Ġtype": 3881,
      "ĠStyle": 3882,
      "Ġbreak": 3883,
      "anto": 3884,
      "ĠKe": 3885,
      "vor": 3886,
      "DS": 3887,
      "Ġseg": 3888,
      "ocks": 3889,
      "Ġhot": 3890,
      "IST": 3891,
      "Ġgoing": 3892,
      "ĠBall": 3893,
      "03": 3894,
      "ischer": 3895,
      "Ġoften": 3896,
      "Ġdesigned": 3897,
      "aur": 3898,
      "tere": 3899,
      "ĠCat": 3900,
      "Ġ00": 3901,
      "Nike": 3902,
      "ĠForm": 3903,
      "PC": 3904,
      "amento": 3905,
      "wert": 3906,
      "ĠHard": 3907,
      "ably": 3908,
      "rect": 3909,
      "inch": 3910,
      "jack": 3911,
      "Ġcop": 3912,
      "Ġmachine": 3913,
      "Ġsubject": 3914,
      "Ġreceive": 3915,
      "Ġgames": 3916,
      "Ġfan": 3917,
      "wick": 3918,
      "ĠNeck": 3919,
      "Ġot": 3920,
      "ibrary": 3921,
      "Ġcovers": 3922,
      "51": 3923,
      "cycle": 3924,
      "iana": 3925,
      "Ġmessage": 3926,
      "Ġwall": 3927,
      "Ġelect": 3928,
      "ĠBattery": 3929,
      "Ã¤hr": 3930,
      "cis": 3931,
      "Ġ2001": 3932,
      "Ġclub": 3933,
      "craft": 3934,
      "ained": 3935,
      "riff": 3936,
      "Ġkind": 3937,
      "Ġneeds": 3938,
      "Ġgli": 3939,
      "rica": 3940,
      "inner": 3941,
      "87": 3942,
      "bi": 3943,
      "ĠClassic": 3944,
      "ĠLO": 3945,
      "ĠInternational": 3946,
      "ĠPaul": 3947,
      "Ġinches": 3948,
      "BS": 3949,
      "amaha": 3950,
      "arranty": 3951,
      "leich": 3952,
      "itting": 3953,
      "tic": 3954,
      "izes": 3955,
      "fr": 3956,
      "Ġqual": 3957,
      "At": 3958,
      "Ġdisplay": 3959,
      "Ġ1000": 3960,
      "urity": 3961,
      "Ġca": 3962,
      "ĠTur": 3963,
      "osition": 3964,
      "airs": 3965,
      "akt": 3966,
      "Ġvinyl": 3967,
      "Gr": 3968,
      "hÃ¶r": 3969,
      "ored": 3970,
      "ĠSam": 3971,
      "Ġtit": 3972,
      "Ġquickly": 3973,
      "Ġdescribed": 3974,
      "Ġtrue": 3975,
      "ĠBN": 3976,
      "OLD": 3977,
      "ĠArtikel": 3978,
      "ĠArm": 3979,
      "reich": 3980,
      "Ġgar": 3981,
      "Ġdoesn": 3982,
      "upp": 3983,
      "hing": 3984,
      "Ġknown": 3985,
      "Ġkle": 3986,
      "Ġcast": 3987,
      "Ġsigned": 3988,
      "ĠWest": 3989,
      "soci": 3990,
      "inary": 3991,
      "ĠEnd": 3992,
      "lle": 3993,
      "Ġoz": 3994,
      "Ġsein": 3995,
      "ules": 3996,
      "2011": 3997,
      "Ġneeded": 3998,
      "iat": 3999,
      "âĢľ": 4000,
      "ĠMor": 4001,
      "ovo": 4002,
      "ĠPark": 4003,
      "ader": 4004,
      "ĠMart": 4005,
      "ĠPO": 4006,
      "Ġwars": 4007,
      "Ġbike": 4008,
      "Ġfeat": 4009,
      "96": 4010,
      "oli": 4011,
      "ixed": 4012,
      "idence": 4013,
      "AST": 4014,
      "Ġtravel": 4015,
      "Ġneg": 4016,
      "Ġmight": 4017,
      "BA": 4018,
      "lege": 4019,
      "asche": 4020,
      "Ġcable": 4021,
      "Ġgovern": 4022,
      "Ġ75": 4023,
      "Ġcab": 4024,
      "Ġlooks": 4025,
      "Ġ250": 4026,
      "Cont": 4027,
      "ĠLo": 4028,
      "anti": 4029,
      "ĠkÃ¶nnen": 4030,
      "izione": 4031,
      "Ġnu": 4032,
      "onic": 4033,
      "Ġ120": 4034,
      "iale": 4035,
      "Ġlater": 4036,
      "Ġdeath": 4037,
      "anging": 4038,
      "Ġanci": 4039,
      "ĠAnn": 4040,
      "esh": 4041,
      "Ġvarious": 4042,
      "teil": 4043,
      "ITE": 4044,
      "asser": 4045,
      "Ġseveral": 4046,
      "Card": 4047,
      "07": 4048,
      "From": 4049,
      "BL": 4050,
      "Ġ150": 4051,
      "Sie": 4052,
      "ĠHow": 4053,
      "ĠAustral": 4054,
      "ĠStra": 4055,
      "Ġprof": 4056,
      "IV": 4057,
      "Ġtools": 4058,
      "ÃĤ": 4059,
      "Ġlights": 4060,
      "Ġdoc": 4061,
      "azine": 4062,
      "ĠMichael": 4063,
      "hot": 4064,
      "Ġprofessional": 4065,
      "Ġprem": 4066,
      "Ġparticular": 4067,
      "ĠDark": 4068,
      "ĠRing": 4069,
      "stell": 4070,
      "white": 4071,
      "Ġmass": 4072,
      "oster": 4073,
      "aracters": 4074,
      "Ġadvent": 4075,
      "Ġdetails": 4076,
      "ĠMach": 4077,
      "ĠTechn": 4078,
      "97": 4079,
      "Ġstore": 4080,
      "Ġcity": 4081,
      "Ġpractice": 4082,
      "boy": 4083,
      "ĠSal": 4084,
      "Ġenough": 4085,
      "Ðµ": 4086,
      "unch": 4087,
      "rel": 4088,
      "Ġ1999": 4089,
      "ffee": 4090,
      "ker": 4091,
      "soft": 4092,
      "ĠFL": 4093,
      "iple": 4094,
      "Ġweight": 4095,
      "gs": 4096,
      "Ġten": 4097,
      "owers": 4098,
      "04": 4099,
      "ĠSS": 4100,
      "Ġmother": 4101,
      "ĠGolf": 4102,
      "ĠFrance": 4103,
      "jet": 4104,
      "vious": 4105,
      "Ġpsych": 4106,
      "Ã©d": 4107,
      "Ġbal": 4108,
      "Ã¼t": 4109,
      "ĠNO": 4110,
      "ging": 4111,
      "ĠStick": 4112,
      "ENS": 4113,
      "abil": 4114,
      "yr": 4115,
      "Us": 4116,
      "bers": 4117,
      "ĠWH": 4118,
      "ĠRock": 4119,
      "Ġdeep": 4120,
      "amer": 4121,
      "ĠCab": 4122,
      "Ġphoto": 4123,
      "Ġoil": 4124,
      "vy": 4125,
      "Ġfem": 4126,
      "GA": 4127,
      "Ġpriv": 4128,
      "ani": 4129,
      "ashion": 4130,
      "ĠCity": 4131,
      "heit": 4132,
      "Ġplastic": 4133,
      "sche": 4134,
      "Ġname": 4135,
      "oma": 4136,
      "ATION": 4137,
      "Ġgeneral": 4138,
      "gar": 4139,
      "Fl": 4140,
      "Â»": 4141,
      "Ã¶g": 4142,
      "ĠUniversity": 4143,
      "Ġliv": 4144,
      "Ġgut": 4145,
      "ening": 4146,
      "ĠFin": 4147,
      "Ġele": 4148,
      "aves": 4149,
      "UK": 4150,
      "ĠBed": 4151,
      "ĠaÃ±": 4152,
      "ĠMade": 4153,
      "aum": 4154,
      "Ġnational": 4155,
      "Ġchristmas": 4156,
      "Ġrole": 4157,
      "600": 4158,
      "Ġspace": 4159,
      "leep": 4160,
      "ĠEU": 4161,
      "ĠAct": 4162,
      "uhe": 4163,
      "reib": 4164,
      "Ġvideo": 4165,
      "arante": 4166,
      "Ġ400": 4167,
      "Ġspirit": 4168,
      "Ġacross": 4169,
      "ORT": 4170,
      "ICE": 4171,
      "otto": 4172,
      "IES": 4173,
      "Ġ~": 4174,
      "Ab": 4175,
      "ending": 4176,
      "ĠPrem": 4177,
      "formation": 4178,
      "Ġdescription": 4179,
      "Ġradio": 4180,
      "CL": 4181,
      "cal": 4182,
      "ĠUnter": 4183,
      "assen": 4184,
      "53": 4185,
      "ĠMA": 4186,
      "imum": 4187,
      "ĠFirst": 4188,
      "Ġbul": 4189,
      "ĠNavy": 4190,
      "Ġstock": 4191,
      "umm": 4192,
      "ĠAD": 4193,
      "ITION": 4194,
      "Ġboy": 4195,
      "neh": 4196,
      "Ġnear": 4197,
      "ĠSeat": 4198,
      "ĠKar": 4199,
      "ugs": 4200,
      "zy": 4201,
      "ĠOpt": 4202,
      "Ġnoch": 4203,
      "Ġlearning": 4204,
      "ĠRich": 4205,
      "ression": 4206,
      "Ġlength": 4207,
      "Ġenvironment": 4208,
      "Ġbring": 4209,
      "Ã¡n": 4210,
      "alking": 4211,
      "Ġgro": 4212,
      "ĠHood": 4213,
      "Ġstandard": 4214,
      "LEASE": 4215,
      "lia": 4216,
      "Ġaux": 4217,
      "Ġsale": 4218,
      "2008": 4219,
      "Ġcompany": 4220,
      "ivil": 4221,
      "gabe": 4222,
      "FT": 4223,
      "izer": 4224,
      "ragen": 4225,
      "igt": 4226,
      "ahn": 4227,
      "ĠBaby": 4228,
      "come": 4229,
      "Ġdar": 4230,
      "ATE": 4231,
      "Fi": 4232,
      "Ġthing": 4233,
      "ĠIns": 4234,
      "ĠChrome": 4235,
      "fahr": 4236,
      "Her": 4237,
      "zeit": 4238,
      "ington": 4239,
      "aki": 4240,
      "lett": 4241,
      "ĠâĢľ": 4242,
      "ĠEnt": 4243,
      "Ġdeter": 4244,
      "2007": 4245,
      "ĠElectric": 4246,
      "FF": 4247,
      "mo": 4248,
      "ĠPop": 4249,
      "sw": 4250,
      "Ein": 4251,
      "adidas": 4252,
      "Ġarea": 4253,
      "vas": 4254,
      "etwork": 4255,
      "Ġtele": 4256,
      "Ġlie": 4257,
      "Ġneu": 4258,
      "Ġsow": 4259,
      "Ġstudies": 4260,
      "ĠIt": 4261,
      "elli": 4262,
      "burg": 4263,
      "89": 4264,
      "URE": 4265,
      "Ġfavor": 4266,
      "Ġdiffic": 4267,
      "ĠPal": 4268,
      "Ġcup": 4269,
      "Ġtyp": 4270,
      "under": 4271,
      "aming": 4272,
      "Our": 4273,
      "Ġdecor": 4274,
      "Ġprovided": 4275,
      "ques": 4276,
      "Ġrich": 4277,
      "orte": 4278,
      "ĠBLACK": 4279,
      "ĠHel": 4280,
      "Ġrare": 4281,
      "Ġlink": 4282,
      "Ġindividual": 4283,
      "ĠWars": 4284,
      "Ġtim": 4285,
      "2006": 4286,
      "ĠRuss": 4287,
      "Ġ55": 4288,
      "Ġroll": 4289,
      "bag": 4290,
      "ĠBu": 4291,
      "ĠEst": 4292,
      "Ġsqu": 4293,
      "Ġpattern": 4294,
      "olle": 4295,
      "ĠUltra": 4296,
      "Ġaber": 4297,
      "Ġric": 4298,
      "aling": 4299,
      "Ġpractical": 4300,
      "Ġcharacters": 4301,
      "ĠCross": 4302,
      "ĠSide": 4303,
      "Ġpopular": 4304,
      "Ġjew": 4305,
      "iento": 4306,
      "opo": 4307,
      "ĠYOU": 4308,
      "Ġwriting": 4309,
      "Ġschwarz": 4310,
      "Ġ39": 4311,
      "terling": 4312,
      "ĠRoll": 4313,
      "ĠChristian": 4314,
      "Ġwonder": 4315,
      "Ġreplacement": 4316,
      "ĠSL": 4317,
      "aten": 4318,
      "las": 4319,
      "2009": 4320,
      "Ġnature": 4321,
      "Ġgroup": 4322,
      "Ġcaus": 4323,
      "pet": 4324,
      "ĠTri": 4325,
      "duc": 4326,
      "AA": 4327,
      "Ġford": 4328,
      "nov": 4329,
      "Ġmicro": 4330,
      "raf": 4331,
      "obe": 4332,
      "Ġ)": 4333,
      "Ġexist": 4334,
      "ĠBOX": 4335,
      "Ġhandle": 4336,
      "size": 4337,
      "alph": 4338,
      "gest": 4339,
      "ĠMint": 4340,
      "Ġskirt": 4341,
      "ĠShort": 4342,
      "fach": 4343,
      "ĠBike": 4344,
      "Ġcapt": 4345,
      "ĠCas": 4346,
      "ĠParty": 4347,
      "Ġseen": 4348,
      "ĠChild": 4349,
      "57": 4350,
      "ĠParts": 4351,
      "Ġespecial": 4352,
      "Ġmarket": 4353,
      "Ġbid": 4354,
      "Sm": 4355,
      "Ġlanguage": 4356,
      "Ġtouch": 4357,
      "aven": 4358,
      "Ġcos": 4359,
      "Ġlens": 4360,
      "Hand": 4361,
      "Ste": 4362,
      "Ġiss": 4363,
      "ĠAUT": 4364,
      "Ġir": 4365,
      "Ġwel": 4366,
      "Ġanyone": 4367,
      "Ġpaper": 4368,
      "Apple": 4369,
      "Ġben": 4370,
      "ĠDen": 4371,
      "Ġselect": 4372,
      "TV": 4373,
      "Ġorigin": 4374,
      "Ġjack": 4375,
      "icks": 4376,
      "ĠRef": 4377,
      "ipe": 4378,
      "Ġinstru": 4379,
      "cription": 4380,
      "ĠWeight": 4381,
      "ĠDeutsch": 4382,
      "unter": 4383,
      "Ġbundle": 4384,
      "ĠCOL": 4385,
      "Ġproper": 4386,
      "ĠShipping": 4387,
      "Ġtheory": 4388,
      "Ġ360": 4389,
      "rÃ¤": 4390,
      "Ġevent": 4391,
      "Ġtotal": 4392,
      "ÂĤ": 4393,
      "rock": 4394,
      "Ġpa": 4395,
      "Ġchrome": 4396,
      "Âĥ": 4397,
      "Ġinside": 4398,
      "Ã´": 4399,
      "ĠGeb": 4400,
      "halten": 4401,
      "Ġknowledge": 4402,
      "Ġfunction": 4403,
      "MS": 4404,
      "ĠHot": 4405,
      "Sub": 4406,
      "ambi": 4407,
      "acht": 4408,
      "Ġcourse": 4409,
      "ĠDO": 4410,
      "hood": 4411,
      "Ġsoon": 4412,
      "Ġpostage": 4413,
      "ailed": 4414,
      "Ġarg": 4415,
      "acity": 4416,
      "itte": 4417,
      "mess": 4418,
      "rain": 4419,
      "ĠCup": 4420,
      "pped": 4421,
      "\")": 4422,
      "Ġchalleng": 4423,
      "ias": 4424,
      "ĠLove": 4425,
      "ĠGR": 4426,
      "Ġmur": 4427,
      "ĠTem": 4428,
      "ĠJul": 4429,
      "Max": 4430,
      "ROM": 4431,
      "ĠGray": 4432,
      "ither": 4433,
      "Ġener": 4434,
      "mes": 4435,
      "wards": 4436,
      "Ġmaster": 4437,
      "ĠMem": 4438,
      "//": 4439,
      "Ġconnect": 4440,
      "Ġliving": 4441,
      "Ġupon": 4442,
      "Ġdate": 4443,
      "ĠClean": 4444,
      "Ġpolicy": 4445,
      "ĠLondon": 4446,
      "Original": 4447,
      "uj": 4448,
      "osten": 4449,
      "Ġhighly": 4450,
      "ources": 4451,
      "Ã¤nge": 4452,
      "Ã¢": 4453,
      "ĠGes": 4454,
      "aughter": 4455,
      "iele": 4456,
      "ĠDoor": 4457,
      "ala": 4458,
      "fre": 4459,
      "ĠCr": 4460,
      "ĠVersand": 4461,
      "ockets": 4462,
      "omet": 4463,
      "unko": 4464,
      "esta": 4465,
      "Ġfant": 4466,
      "Ġgel": 4467,
      "94": 4468,
      "ustand": 4469,
      "Ġimpact": 4470,
      "Ġculture": 4471,
      "ĠTime": 4472,
      "Ġjourney": 4473,
      "DER": 4474,
      "Ġcolour": 4475,
      "Ġcharge": 4476,
      "pokemon": 4477,
      "pan": 4478,
      "hel": 4479,
      "Ġ31": 4480,
      "ikon": 4481,
      "ĠDu": 4482,
      "ĠNatural": 4483,
      "Ġach": 4484,
      "temporary": 4485,
      "Ġgirls": 4486,
      "wend": 4487,
      "Ġang": 4488,
      "Ġstruct": 4489,
      "Ġways": 4490,
      "pret": 4491,
      "Ġmonths": 4492,
      "ki": 4493,
      "ĠCable": 4494,
      "93": 4495,
      "ĠRoyal": 4496,
      "92": 4497,
      "ilet": 4498,
      "Will": 4499,
      "utes": 4500,
      "BN": 4501,
      "bow": 4502,
      "2005": 4503,
      "Ġstorage": 4504,
      "Ġconse": 4505,
      "elves": 4506,
      "ĠSpeed": 4507,
      "oir": 4508,
      "inet": 4509,
      "text": 4510,
      "Ġsua": 4511,
      "ĠSwitch": 4512,
      "Ġcall": 4513,
      "RP": 4514,
      "Ġcompreh": 4515,
      "Ġing": 4516,
      "Ġbes": 4517,
      "heiten": 4518,
      "lebr": 4519,
      "MC": 4520,
      "Ġmean": 4521,
      "ds": 4522,
      "ĠNational": 4523,
      "Ĥ¬": 4524,
      "opf": 4525,
      "ovie": 4526,
      "ius": 4527,
      "Ã¤ng": 4528,
      "ĠTour": 4529,
      "ĠHO": 4530,
      "yester": 4531,
      "Ġger": 4532,
      "Super": 4533,
      "Ã¬": 4534,
      "Ġdigital": 4535,
      "cont": 4536,
      "Ġframe": 4537,
      "Ġmanual": 4538,
      "Ġbutton": 4539,
      "ĠWheel": 4540,
      "icher": 4541,
      "AU": 4542,
      "SH": 4543,
      "Ġversion": 4544,
      "ipper": 4545,
      "Ġwon": 4546,
      "Ġscience": 4547,
      "ĠSens": 4548,
      "PL": 4549,
      "imp": 4550,
      "kk": 4551,
      "arts": 4552,
      "ĠWash": 4553,
      "ya": 4554,
      "asketball": 4555,
      "Ġhaben": 4556,
      "ONE": 4557,
      "Ãī": 4558,
      "Ġanim": 4559,
      "atore": 4560,
      "Ġreve": 4561,
      "Ġmatch": 4562,
      "ĠDi": 4563,
      "IDE": 4564,
      "ĠDet": 4565,
      "Colour": 4566,
      "Ġfund": 4567,
      "Ġpin": 4568,
      "olding": 4569,
      "ridge": 4570,
      "ĠEngine": 4571,
      "print": 4572,
      "stant": 4573,
      "ĠHy": 4574,
      "illing": 4575,
      "gers": 4576,
      "ĠMont": 4577,
      "Ġboard": 4578,
      "Ġanalysis": 4579,
      "ements": 4580,
      "rial": 4581,
      "Ġsystems": 4582,
      "una": 4583,
      "Ġï¿½ï¿½": 4584,
      "ipment": 4585,
      "Ġhalf": 4586,
      "HD": 4587,
      "ĠAv": 4588,
      "een": 4589,
      "QU": 4590,
      "ental": 4591,
      "aro": 4592,
      "DITION": 4593,
      "GC": 4594,
      "ĠSub": 4595,
      "ĠAutom": 4596,
      "ĠJeans": 4597,
      "nam": 4598,
      "ention": 4599,
      "utch": 4600,
      "Ġgebra": 4601,
      "unst": 4602,
      "LEGO": 4603,
      "ĠBy": 4604,
      "ĠBluetooth": 4605,
      "ylon": 4606,
      "ser": 4607,
      "field": 4608,
      "Ġinvol": 4609,
      "Ġlat": 4610,
      "Ġconcern": 4611,
      "suit": 4612,
      "Ġbrown": 4613,
      "Ġmyster": 4614,
      "ĠSchool": 4615,
      "ĠPot": 4616,
      "HER": 4617,
      "001": 4618,
      "91": 4619,
      "Ġiron": 4620,
      "OEM": 4621,
      "Ġsy": 4622,
      "Pal": 4623,
      "Ġfair": 4624,
      "ĠLow": 4625,
      "ague": 4626,
      "rich": 4627,
      "Ġcy": 4628,
      "Ġnumer": 4629,
      "ento": 4630,
      "ĠBild": 4631,
      "ĠKids": 4632,
      "ĠRobert": 4633,
      "blic": 4634,
      "CC": 4635,
      "antes": 4636,
      "ĠBoots": 4637,
      "ĠDog": 4638,
      "Ġ46": 4639,
      "ĠRob": 4640,
      "ĠAction": 4641,
      "ĠMail": 4642,
      "kg": 4643,
      "ading": 4644,
      "ĠKon": 4645,
      "iddle": 4646,
      "ĠGT": 4647,
      "ĠProfess": 4648,
      "ĠWireless": 4649,
      "Ġcotton": 4650,
      "aily": 4651,
      "ĠClub": 4652,
      "Ġessential": 4653,
      "sl": 4654,
      "Bes": 4655,
      "ĠMay": 4656,
      "uster": 4657,
      "utions": 4658,
      "sen": 4659,
      "place": 4660,
      "ĠLadies": 4661,
      "His": 4662,
      "Ġmo": 4663,
      "issan": 4664,
      "cit": 4665,
      "inese": 4666,
      "Ġunivers": 4667,
      "Ġleave": 4668,
      "chet": 4669,
      "ĠMot": 4670,
      "ierung": 4671,
      "MI": 4672,
      "pose": 4673,
      "di": 4674,
      "ighter": 4675,
      "Ġcirc": 4676,
      "antique": 4677,
      "ĠDisplay": 4678,
      "amin": 4679,
      "isation": 4680,
      "Ġcommunic": 4681,
      "PA": 4682,
      "ĠDan": 4683,
      "Ġsolo": 4684,
      "Ġthough": 4685,
      "har": 4686,
      "ĠNEU": 4687,
      "cho": 4688,
      "Ġcool": 4689,
      "Ġappear": 4690,
      "Ġfire": 4691,
      "hrer": 4692,
      "Ġsignific": 4693,
      "ĠAccessories": 4694,
      "ground": 4695,
      "adas": 4696,
      "Ġtown": 4697,
      "ĠHouse": 4698,
      "schied": 4699,
      "halt": 4700,
      "Other": 4701,
      "ship": 4702,
      "ĠSn": 4703,
      "Ġhope": 4704,
      "ĠMa": 4705,
      "ĠOld": 4706,
      "ators": 4707,
      "Ġquestion": 4708,
      "elry": 4709,
      "ester": 4710,
      "ĠPhil": 4711,
      "Ġcui": 4712,
      "Ġaw": 4713,
      "ĠÂ»": 4714,
      "body": 4715,
      "ĠHistory": 4716,
      "azer": 4717,
      "ĠBel": 4718,
      "ĠFloral": 4719,
      "Ġpen": 4720,
      "Ġreader": 4721,
      "izing": 4722,
      "ĠMil": 4723,
      "ĠRÃ¼ck": 4724,
      "UB": 4725,
      "NE": 4726,
      "Ġunit": 4727,
      "bmw": 4728,
      "Ġhaving": 4729,
      "lands": 4730,
      "istr": 4731,
      "ria": 4732,
      "ĠSO": 4733,
      "Ġ65": 4734,
      "Ġreturns": 4735,
      "IPPING": 4736,
      "350": 4737,
      "Just": 4738,
      "Ġcand": 4739,
      "ĠStainless": 4740,
      "ĠManual": 4741,
      "Ġ(\"": 4742,
      "Ver": 4743,
      "ĠCamp": 4744,
      "Ġdead": 4745,
      "ĠYellow": 4746,
      "Ġroom": 4747,
      "ĠWilliam": 4748,
      "Ġpurchased": 4749,
      "rot": 4750,
      "However": 4751,
      "iden": 4752,
      "berry": 4753,
      "ĠKle": 4754,
      "Ġsett": 4755,
      "Each": 4756,
      "ĠMass": 4757,
      "Ġscient": 4758,
      "oses": 4759,
      "atto": 4760,
      "Ġkeine": 4761,
      "ACT": 4762,
      "unden": 4763,
      "Ġbelt": 4764,
      "1000": 4765,
      "Ġsmart": 4766,
      "Ġinvestig": 4767,
      "Ġpackage": 4768,
      "enty": 4769,
      "Ġ1998": 4770,
      "ICK": 4771,
      "Ġfall": 4772,
      "ĠDecor": 4773,
      "ĠBig": 4774,
      "though": 4775,
      "Ġeasily": 4776,
      "ĠCAR": 4777,
      "LED": 4778,
      "ĠBul": 4779,
      "86": 4780,
      "icone": 4781,
      "samsung": 4782,
      "FL": 4783,
      "Ġestab": 4784,
      "Ġcoin": 4785,
      "Ġlock": 4786,
      "Ġplate": 4787,
      "ĠGrand": 4788,
      "Ġintegr": 4789,
      "ÃŁen": 4790,
      "Ġhar": 4791,
      "Ġlog": 4792,
      "ĠFamily": 4793,
      "Ġ33": 4794,
      "MAN": 4795,
      "aining": 4796,
      "ĠMir": 4797,
      "Nel": 4798,
      "water": 4799,
      "Ġcook": 4800,
      "BR": 4801,
      "iture": 4802,
      "ĠBuch": 4803,
      "ĠHolder": 4804,
      "Ġartic": 4805,
      "apters": 4806,
      "ĠArbe": 4807,
      "ĠTher": 4808,
      "ĠUsed": 4809,
      "Ġdouble": 4810,
      "Ġcharger": 4811,
      "Ġlisting": 4812,
      "Ġgew": 4813,
      "pal": 4814,
      "reng": 4815,
      "Ġpull": 4816,
      "aser": 4817,
      "ĠBen": 4818,
      "lung": 4819,
      "Ġdrive": 4820,
      "Ġissue": 4821,
      "ĠALL": 4822,
      "Ġcontains": 4823,
      "pol": 4824,
      "Ġho": 4825,
      "Ġvel": 4826,
      "Ġcustomer": 4827,
      "Ġfol": 4828,
      "Ġmis": 4829,
      "ĠDo": 4830,
      "Ġpad": 4831,
      "ĠCast": 4832,
      "ersch": 4833,
      "Ġdalla": 4834,
      "stein": 4835,
      "roid": 4836,
      "VP": 4837,
      "Ġgiven": 4838,
      "Ġpages": 4839,
      "ning": 4840,
      "ubl": 4841,
      "Com": 4842,
      "made": 4843,
      "arks": 4844,
      "GS": 4845,
      "Ġaspect": 4846,
      "PU": 4847,
      "ĠFun": 4848,
      "Ġspecific": 4849,
      "ĠDR": 4850,
      "alloween": 4851,
      "Ġhy": 4852,
      "ĠSz": 4853,
      "Ġdidn": 4854,
      "84": 4855,
      "Ġpublished": 4856,
      "Ġouv": 4857,
      "ively": 4858,
      "reme": 4859,
      "time": 4860,
      "Ġlib": 4861,
      "Ġtank": 4862,
      "asures": 4863,
      "Ġgives": 4864,
      "ĠSci": 4865,
      "Ġcommon": 4866,
      "ĠDisc": 4867,
      "Ġobs": 4868,
      "ĠNight": 4869,
      "Ġseason": 4870,
      "ĠTre": 4871,
      "wo": 4872,
      "Ġvan": 4873,
      "Ġ600": 4874,
      "Ġfather": 4875,
      "Ġpump": 4876,
      "arrings": 4877,
      "Ġrepresent": 4878,
      "Ġthroughout": 4879,
      "uminum": 4880,
      "ĠFrom": 4881,
      "Ġcompet": 4882,
      "ĠBott": 4883,
      "ãĢ": 4884,
      "oved": 4885,
      "clusive": 4886,
      "gold": 4887,
      "Ġcultural": 4888,
      "Ġmeasure": 4889,
      "edge": 4890,
      "Ġcer": 4891,
      "Ġconne": 4892,
      "ichte": 4893,
      "Work": 4894,
      "Ret": 4895,
      "cio": 4896,
      "ville": 4897,
      "ĠDep": 4898,
      "ĠOver": 4899,
      "ĠThis": 4900,
      "Ġlost": 4901,
      "rupp": 4902,
      "Ġdre": 4903,
      "Ġ1990": 4904,
      "auty": 4905,
      "ĠGift": 4906,
      "ĠGarden": 4907,
      "Ġcomplex": 4908,
      "HL": 4909,
      "kin": 4910,
      "Ġpocket": 4911,
      "Ã¤d": 4912,
      "Ð¸": 4913,
      "Ġlim": 4914,
      "ava": 4915,
      "Ġimm": 4916,
      "ĠCR": 4917,
      "Br": 4918,
      "Ġges": 4919,
      "Ġinner": 4920,
      "Ġtechniques": 4921,
      "Ġwhole": 4922,
      "aly": 4923,
      "ounter": 4924,
      "Ġpoet": 4925,
      "Ġpackaging": 4926,
      "imensions": 4927,
      "ĠPo": 4928,
      "ston": 4929,
      "ĠHE": 4930,
      "ĠOil": 4931,
      "Ġmal": 4932,
      "://": 4933,
      "Ã©c": 4934,
      "utting": 4935,
      "istance": 4936,
      "ĠTrack": 4937,
      "auge": 4938,
      "Ġsurv": 4939,
      "Ã¼ss": 4940,
      "well": 4941,
      "Ġtechnology": 4942,
      "mission": 4943,
      "ience": 4944,
      "2004": 4945,
      "annel": 4946,
      "umps": 4947,
      "mbre": 4948,
      "ĠRetro": 4949,
      "Ġprior": 4950,
      "Ġsets": 4951,
      "ĠStandard": 4952,
      "ĠOl": 4953,
      "lasses": 4954,
      "Ġcontinu": 4955,
      "owned": 4956,
      "oves": 4957,
      "Pr": 4958,
      "Ġlonger": 4959,
      "uments": 4960,
      "ĠCollect": 4961,
      "Ġhom": 4962,
      "tg": 4963,
      "ĠAlex": 4964,
      "Ġareas": 4965,
      "egen": 4966,
      "ample": 4967,
      "Ġtrousers": 4968,
      "Ġmodels": 4969,
      "Ġphilosoph": 4970,
      "120": 4971,
      "lied": 4972,
      "HP": 4973,
      "ĠOnly": 4974,
      "Ġnike": 4975,
      "Ġebay": 4976,
      "medi": 4977,
      "ĠSun": 4978,
      "hors": 4979,
      "HS": 4980,
      "ĠThomas": 4981,
      "Ġmultiple": 4982,
      "Some": 4983,
      "Ġtur": 4984,
      "Ġmeet": 4985,
      "Ġreturned": 4986,
      "vision": 4987,
      "ĠIII": 4988,
      "83": 4989,
      "Ġci": 4990,
      "len": 4991,
      "Ġprima": 4992,
      "Ġfully": 4993,
      "Ġfigures": 4994,
      "ĠMo": 4995,
      "ova": 4996,
      "net": 4997,
      "ĠZeit": 4998,
      "ictor": 4999,
      "Ġdone": 5000,
      "aria": 5001,
      "eles": 5002,
      "irthday": 5003,
      "Ġrot": 5004,
      "Ġvom": 5005,
      "fa": 5006,
      "etta": 5007,
      "MM": 5008,
      "wagen": 5009,
      "Ġpal": 5010,
      "ĠGeorge": 5011,
      "merican": 5012,
      "odge": 5013,
      "unto": 5014,
      "High": 5015,
      "ĠBooks": 5016,
      "Ġcreate": 5017,
      "Ġpage": 5018,
      "Ġanni": 5019,
      "Ġprotection": 5020,
      "Ġviol": 5021,
      "eds": 5022,
      "Ġ=": 5023,
      "los": 5024,
      "OOD": 5025,
      "ðŁ": 5026,
      "han": 5027,
      "isc": 5028,
      "nament": 5029,
      "iforn": 5030,
      "ĠGRE": 5031,
      "richt": 5032,
      "Ġemer": 5033,
      "ĠLimited": 5034,
      "Ġworth": 5035,
      "Ġimag": 5036,
      "nah": 5037,
      "ĠSealed": 5038,
      "aring": 5039,
      "ABLE": 5040,
      "Ġsepar": 5041,
      "82": 5042,
      "igned": 5043,
      "round": 5044,
      "Ġmais": 5045,
      "Ġarrived": 5046,
      "esto": 5047,
      "Ġsell": 5048,
      "Ġdeux": 5049,
      "isen": 5050,
      "ĠBMW": 5051,
      "aciones": 5052,
      "Ġalmost": 5053,
      "Ġsock": 5054,
      "Ġgun": 5055,
      "ĠTOP": 5056,
      "Top": 5057,
      "Ġglobal": 5058,
      "Ġperspect": 5059,
      "leece": 5060,
      "Ġposter": 5061,
      "ĠCore": 5062,
      "ĠGB": 5063,
      "Men": 5064,
      "igu": 5065,
      "Ġinflu": 5066,
      "Ġstep": 5067,
      "zeich": 5068,
      "was": 5069,
      "case": 5070,
      "cker": 5071,
      "Ġguitar": 5072,
      "haust": 5073,
      "vro": 5074,
      "ĠAP": 5075,
      "edic": 5076,
      "Ġstri": 5077,
      "ĠBU": 5078,
      "ĠChina": 5079,
      "esse": 5080,
      "ĠPres": 5081,
      "Ġcond": 5082,
      "Ġ37": 5083,
      "ĠOrgan": 5084,
      "ĠDouble": 5085,
      "Ġscale": 5086,
      "host": 5087,
      "arbie": 5088,
      "ATCH": 5089,
      "Ġbottom": 5090,
      "enen": 5091,
      "azioni": 5092,
      "aim": 5093,
      "Ġeuro": 5094,
      "ploy": 5095,
      "Ġjumper": 5096,
      "ĠTor": 5097,
      "itect": 5098,
      "Che": 5099,
      "2003": 5100,
      "Excellent": 5101,
      "Ġroad": 5102,
      "ĠAg": 5103,
      "mit": 5104,
      "Ġauction": 5105,
      "Ġhowever": 5106,
      "Ġsin": 5107,
      "idos": 5108,
      "with": 5109,
      "Now": 5110,
      "pcs": 5111,
      "vrolet": 5112,
      "ĠVan": 5113,
      "ĠRARE": 5114,
      "Ġcannot": 5115,
      "ĠParis": 5116,
      "Ġexactly": 5117,
      "Ġrac": 5118,
      "ĠFilm": 5119,
      "zie": 5120,
      "hm": 5121,
      "Ġses": 5122,
      "Ġohne": 5123,
      "ĠHor": 5124,
      "ĠButton": 5125,
      "Ġbehind": 5126,
      "Ġclos": 5127,
      "Ġdry": 5128,
      "Ġanything": 5129,
      "locked": 5130,
      "ĠCart": 5131,
      "Ġtruck": 5132,
      "Ġsaid": 5133,
      "ĠFrench": 5134,
      "Fit": 5135,
      "Ġdifficult": 5136,
      "Ġfram": 5137,
      "Ġmor": 5138,
      "anno": 5139,
      "ĠHeight": 5140,
      "ĠMal": 5141,
      "Â®": 5142,
      "GR": 5143,
      "Sony": 5144,
      "Ġcomme": 5145,
      "Ġaccessories": 5146,
      "Ġcomprehensive": 5147,
      "ĠRadio": 5148,
      "Ġdesp": 5149,
      "ĠMatt": 5150,
      "cr": 5151,
      "ÑĤ": 5152,
      "acu": 5153,
      "ĠâĢŀ": 5154,
      "ĠFREE": 5155,
      "ae": 5156,
      "ĠÃ©tÃ©": 5157,
      "Ġrelationship": 5158,
      "gew": 5159,
      "!!!": 5160,
      "arp": 5161,
      "Ġadult": 5162,
      "ĠQU": 5163,
      "zo": 5164,
      "Ġflat": 5165,
      "ĠSupp": 5166,
      "Ph": 5167,
      "ĠPH": 5168,
      "Ġrequired": 5169,
      "Ġhistorical": 5170,
      "tra": 5171,
      "Easy": 5172,
      "ĠLaw": 5173,
      "ugust": 5174,
      "ologie": 5175,
      "Ġcorrect": 5176,
      "aggio": 5177,
      "spe": 5178,
      "IGN": 5179,
      "ĠPerson": 5180,
      "Power": 5181,
      "Ġtras": 5182,
      "Ġtie": 5183,
      "ĠMid": 5184,
      "Ġprob": 5185,
      "Ġphotograph": 5186,
      ".)": 5187,
      "Ġlamp": 5188,
      "Ġvill": 5189,
      "Ġhands": 5190,
      "anda": 5191,
      "DA": 5192,
      "vil": 5193,
      "Ġmeans": 5194,
      "ĠSchl": 5195,
      "Ġelectric": 5196,
      "Ġholder": 5197,
      "bau": 5198,
      "Ġactual": 5199,
      "Ġshape": 5200,
      "asion": 5201,
      "Ġking": 5202,
      "Ġmanagement": 5203,
      "ĠBet": 5204,
      "Ġseem": 5205,
      "Ã¨me": 5206,
      "Ġensure": 5207,
      "Ġbuying": 5208,
      "Ġbaseball": 5209,
      "Ġamong": 5210,
      "ĠScreen": 5211,
      "Ġpap": 5212,
      "ĠColl": 5213,
      "Ġpowerful": 5214,
      "Lot": 5215,
      "boys": 5216,
      "Ġbuyer": 5217,
      "TA": 5218,
      "Ġdamage": 5219,
      "Ã¶glich": 5220,
      "opt": 5221,
      "ĠMad": 5222,
      "zer": 5223,
      "asta": 5224,
      "uni": 5225,
      "Ġ1970": 5226,
      "Ġdetail": 5227,
      "Ġwords": 5228,
      "etti": 5229,
      "Feat": 5230,
      "Ġclose": 5231,
      "ready": 5232,
      "osch": 5233,
      "TO": 5234,
      "Ġsix": 5235,
      "ĠLP": 5236,
      "amera": 5237,
      "Ġamazing": 5238,
      "Ġrequire": 5239,
      "alo": 5240,
      "Ġmont": 5241,
      "uki": 5242,
      "Ġcertain": 5243,
      "ĠDisney": 5244,
      "ians": 5245,
      "ĠHen": 5246,
      "ifier": 5247,
      "Ġjed": 5248,
      "Ġlauren": 5249,
      "Ġhon": 5250,
      "Ġmid": 5251,
      "IVE": 5252,
      "Ġsoftback": 5253,
      "Ġren": 5254,
      "zzle": 5255,
      "itan": 5256,
      "ierte": 5257,
      "Light": 5258,
      "Ġsowie": 5259,
      "ĠCur": 5260,
      "ĠLamp": 5261,
      "ĠPokemon": 5262,
      "uma": 5263,
      "ĠNike": 5264,
      "ĠZip": 5265,
      "Ġorders": 5266,
      "Ġze": 5267,
      "artment": 5268,
      "ĠDual": 5269,
      "Ġbuilt": 5270,
      "uv": 5271,
      "ĠONLY": 5272,
      "ĠHair": 5273,
      "order": 5274,
      "isp": 5275,
      "Ġbatter": 5276,
      "kee": 5277,
      "LECT": 5278,
      "Ġapprox": 5279,
      "ĠKl": 5280,
      "ela": 5281,
      "ĠEngland": 5282,
      "Ġmedia": 5283,
      "Ġmethods": 5284,
      "ĠGL": 5285,
      "ĠCustom": 5286,
      "Par": 5287,
      "Pat": 5288,
      "Ġ1997": 5289,
      "Ġrunning": 5290,
      "ADE": 5291,
      "Ġparty": 5292,
      "station": 5293,
      "elbst": 5294,
      "ĠBible": 5295,
      "esso": 5296,
      "Ġnecess": 5297,
      "Ġbene": 5298,
      "Ġwanted": 5299,
      "aries": 5300,
      "KS": 5301,
      "Ġgem": 5302,
      "Ġcomputer": 5303,
      "emble": 5304,
      "ilar": 5305,
      "bere": 5306,
      "ĠGem": 5307,
      "ĠFrank": 5308,
      "Ġesp": 5309,
      "adow": 5310,
      "ĠAdapter": 5311,
      "Ġforce": 5312,
      "embly": 5313,
      "ĠGesch": 5314,
      "ibilit": 5315,
      "des": 5316,
      "ĠVinyl": 5317,
      "Ġgetting": 5318,
      "ahre": 5319,
      "vised": 5320,
      "ĠStrap": 5321,
      "800": 5322,
      "ï¼": 5323,
      "Ġrap": 5324,
      "Ġgraph": 5325,
      "nummer": 5326,
      "FOR": 5327,
      "Ġdieser": 5328,
      "Ġcin": 5329,
      "ĠJersey": 5330,
      "ĠImp": 5331,
      "oil": 5332,
      "ivery": 5333,
      "jacke": 5334,
      "yond": 5335,
      "rance": 5336,
      "ira": 5337,
      "Ġcalled": 5338,
      "ouve": 5339,
      "ĠService": 5340,
      "Ġhier": 5341,
      "Spe": 5342,
      "Ġideas": 5343,
      "ellt": 5344,
      "ĠMP": 5345,
      "ij": 5346,
      "ommen": 5347,
      "ĠARE": 5348,
      "FÃ¼r": 5349,
      "aket": 5350,
      "ĠTom": 5351,
      "Ġrob": 5352,
      "Ġtax": 5353,
      "ĠWidth": 5354,
      "ĠGew": 5355,
      "Mit": 5356,
      "Ġcars": 5357,
      "ĠJordan": 5358,
      "igkeit": 5359,
      "anner": 5360,
      "earl": 5361,
      "iversary": 5362,
      "Ġskin": 5363,
      "Ġmatter": 5364,
      "iper": 5365,
      "ĠMINT": 5366,
      "Ġexpected": 5367,
      "ein": 5368,
      "imento": 5369,
      "ĠNeu": 5370,
      "ĠAge": 5371,
      "weet": 5372,
      "ĠRoad": 5373,
      "ĠPeter": 5374,
      "phones": 5375,
      "Ġespecially": 5376,
      "Shirt": 5377,
      "hes": 5378,
      "oring": 5379,
      "bu": 5380,
      "Ġxxl": 5381,
      "110": 5382,
      "Ġshown": 5383,
      "Ġfurther": 5384,
      "aced": 5385,
      "afe": 5386,
      "iko": 5387,
      "Ġadv": 5388,
      "die": 5389,
      "Ġlik": 5390,
      "ĠJan": 5391,
      "Ġpresents": 5392,
      "Ġ1996": 5393,
      "zel": 5394,
      "tempt": 5395,
      "stoff": 5396,
      "Ġupd": 5397,
      "ifornia": 5398,
      "arbeit": 5399,
      "obby": 5400,
      "ĠFire": 5401,
      "obil": 5402,
      "Ġfilter": 5403,
      "nes": 5404,
      "atte": 5405,
      "ĠNintendo": 5406,
      "Ġskills": 5407,
      "ĠSqu": 5408,
      "Ġai": 5409,
      "ĠPull": 5410,
      "oco": 5411,
      "ami": 5412,
      "zahl": 5413,
      "vanced": 5414,
      "ĠElect": 5415,
      "ĠPaint": 5416,
      "DE": 5417,
      "Ġperform": 5418,
      "Ġcosts": 5419,
      "russ": 5420,
      "Ġemb": 5421,
      "fen": 5422,
      "fly": 5423,
      "Ã©l": 5424,
      "MB": 5425,
      "comp": 5426,
      "ĠLibrary": 5427,
      "Ġvariety": 5428,
      "rick": 5429,
      "Ġuno": 5430,
      "Ġwait": 5431,
      "Ġseems": 5432,
      "Chr": 5433,
      "esis": 5434,
      "usion": 5435,
      "ĠSHIPPING": 5436,
      "Ã¤h": 5437,
      "rox": 5438,
      "ÑĢ": 5439,
      "ĠVor": 5440,
      "ĠRose": 5441,
      "Ġfive": 5442,
      "ĠPin": 5443,
      "Ġposition": 5444,
      "Ġboys": 5445,
      "Free": 5446,
      "ĠWil": 5447,
      "Ã®": 5448,
      "aylor": 5449,
      "Ġhimself": 5450,
      "but": 5451,
      "Ġevents": 5452,
      "Women": 5453,
      "Ġcru": 5454,
      "Ġ110": 5455,
      "Ġ1980": 5456,
      "Ġadded": 5457,
      "oni": 5458,
      "ogen": 5459,
      "bt": 5460,
      "oupe": 5461,
      "ĠMulti": 5462,
      "cipes": 5463,
      "Ġdiese": 5464,
      "rio": 5465,
      "ĠFace": 5466,
      "DC": 5467,
      "Ġladies": 5468,
      "rict": 5469,
      "Ġgrey": 5470,
      "ĠCode": 5471,
      "Ġdetailed": 5472,
      "Station": 5473,
      "ittel": 5474,
      "Ġstrap": 5475,
      "Ġwor": 5476,
      "Ġconserv": 5477,
      "eath": 5478,
      "ĠDeck": 5479,
      "ĠSET": 5480,
      "Ð½": 5481,
      "uman": 5482,
      "Ġfoot": 5483,
      "Ġentire": 5484,
      "SC": 5485,
      "INI": 5486,
      "rÃ¼": 5487,
      "ĠPocket": 5488,
      "81": 5489,
      "long": 5490,
      "AF": 5491,
      "ternal": 5492,
      "rength": 5493,
      "Reg": 5494,
      "ĠFast": 5495,
      "zza": 5496,
      "Ġnav": 5497,
      "ĠTruck": 5498,
      "ocking": 5499,
      "ĠWOR": 5500,
      "ĠIron": 5501,
      "rift": 5502,
      "Ġbecame": 5503,
      "mini": 5504,
      "Ġ1500": 5505,
      "Ġsummer": 5506,
      "Ġsun": 5507,
      "oam": 5508,
      "Eng": 5509,
      "Ġstrateg": 5510,
      "Out": 5511,
      "stra": 5512,
      "Ġfer": 5513,
      "elles": 5514,
      "eatshirt": 5515,
      "hp": 5516,
      "ĠJour": 5517,
      "ĠAdjustable": 5518,
      "Ġnothing": 5519,
      "iÃ³": 5520,
      "Ġlate": 5521,
      "Ġprizm": 5522,
      "wing": 5523,
      "Ġriv": 5524,
      "Ġsave": 5525,
      "Ġeye": 5526,
      "ĠSpecial": 5527,
      "Ġpolo": 5528,
      "adt": 5529,
      "rs": 5530,
      "ĠITEM": 5531,
      "aded": 5532,
      "ĠLens": 5533,
      "IX": 5534,
      "max": 5535,
      "Ġtor": 5536,
      "Ġonline": 5537,
      "ĠOutdoor": 5538,
      "ifen": 5539,
      "Ind": 5540,
      "ĠColour": 5541,
      "ĠFilter": 5542,
      "Ġready": 5543,
      "ĠCoat": 5544,
      "Ġcontemporary": 5545,
      "Ġ125": 5546,
      "aille": 5547,
      "BER": 5548,
      "Ġguarante": 5549,
      "hi": 5550,
      "Ġideal": 5551,
      "Ġplayer": 5552,
      "oid": 5553,
      "Ġwieder": 5554,
      "Ġsolid": 5555,
      "Ġwrong": 5556,
      "Ġtook": 5557,
      "Ġtaken": 5558,
      "ĠWE": 5559,
      "Ġacqu": 5560,
      "anning": 5561,
      "ĠPlastic": 5562,
      "ĠFer": 5563,
      "Every": 5564,
      "ambiÃ©n": 5565,
      "rett": 5566,
      "ĠSports": 5567,
      "Ġslee": 5568,
      "ĠDrive": 5569,
      "hrough": 5570,
      "Ġtemper": 5571,
      "ĠJapanese": 5572,
      "Ġdos": 5573,
      "Ġprod": 5574,
      "Ġtrainers": 5575,
      "ĠDec": 5576,
      "oca": 5577,
      "Ġheavy": 5578,
      "Ladies": 5579,
      "appy": 5580,
      "Int": 5581,
      "Ġparticip": 5582,
      "zt": 5583,
      "Ġstrugg": 5584,
      "Ġgebraucht": 5585,
      "Acc": 5586,
      "UPC": 5587,
      "Ġcro": 5588,
      "tereo": 5589,
      "ĠWinter": 5590,
      "oulder": 5591,
      "Ġindic": 5592,
      "Ġeducation": 5593,
      "edy": 5594,
      "ply": 5595,
      "esus": 5596,
      "issen": 5597,
      "irk": 5598,
      "Ġremote": 5599,
      "Ġsociety": 5600,
      "Ġoutside": 5601,
      "ĠRod": 5602,
      "Ġ128": 5603,
      "Ġground": 5604,
      "ĠWILL": 5605,
      "ĠBas": 5606,
      "aÃ±": 5607,
      "itel": 5608,
      "tor": 5609,
      "ands": 5610,
      "gal": 5611,
      "Ġprevious": 5612,
      "wa": 5613,
      "Ġpieces": 5614,
      ",\"": 5615,
      "ĠFootball": 5616,
      "Ġsurface": 5617,
      "ĠMusic": 5618,
      "ĠPhone": 5619,
      "Ġredu": 5620,
      "Ġchain": 5621,
      "ĠVolume": 5622,
      "Ġfits": 5623,
      "Ġmaint": 5624,
      "ĠPrizm": 5625,
      "Samsung": 5626,
      "Ã©ri": 5627,
      "enta": 5628,
      "END": 5629,
      "agnetic": 5630,
      "ĠNach": 5631,
      "Ġaccur": 5632,
      "anne": 5633,
      "onderheiten": 5634,
      "By": 5635,
      "Ġ43": 5636,
      "Ġber": 5637,
      "enge": 5638,
      "Ġplant": 5639,
      "ĠXS": 5640,
      "isto": 5641,
      "Ġmirror": 5642,
      "ĠReal": 5643,
      "Ġchapter": 5644,
      "Ġround": 5645,
      "700": 5646,
      "cd": 5647,
      "Ġemot": 5648,
      "Ġ41": 5649,
      "ractor": 5650,
      "stone": 5651,
      "Don": 5652,
      "Ġdra": 5653,
      "ĠStorage": 5654,
      "ĠMit": 5655,
      "Ġsaw": 5656,
      "ĠReplacement": 5657,
      "ĠBoard": 5658,
      "ĠSchwarz": 5659,
      "Ġped": 5660,
      "ĠMO": 5661,
      "Ġlimited": 5662,
      "Ġperfectly": 5663,
      "Ġdivers": 5664,
      "Ġprogram": 5665,
      "Nintendo": 5666,
      "ĠDate": 5667,
      "Ġanswer": 5668,
      "Ġessere": 5669,
      "ĠClear": 5670,
      "top": 5671,
      "Ġgrad": 5672,
      "uis": 5673,
      "girls": 5674,
      "pat": 5675,
      "Ġcommunity": 5676,
      "asse": 5677,
      "ĠRAM": 5678,
      "ĠMaster": 5679,
      "Ã©rie": 5680,
      "Ġabove": 5681,
      "ĠOrange": 5682,
      "Ġattempt": 5683,
      "Ġsul": 5684,
      "ĠHA": 5685,
      "ĠCy": 5686,
      "atman": 5687,
      "Ġimages": 5688,
      "cipl": 5689,
      "ĠSound": 5690,
      "ĠGraph": 5691,
      "2002": 5692,
      "Ġcontext": 5693,
      "hy": 5694,
      "agle": 5695,
      "uxe": 5696,
      "ests": 5697,
      "Est": 5698,
      "ĠGenuine": 5699,
      "acuum": 5700,
      "''": 5701,
      "auer": 5702,
      "odes": 5703,
      "cing": 5704,
      "oden": 5705,
      "enschaft": 5706,
      "Ġ350": 5707,
      "Over": 5708,
      "wise": 5709,
      "Ġcountries": 5710,
      "enny": 5711,
      "ĠLA": 5712,
      "Ġemail": 5713,
      "Ġfond": 5714,
      "Ġli": 5715,
      "Is": 5716,
      "ĠArch": 5717,
      "ĠPick": 5718,
      "idge": 5719,
      "Ġsing": 5720,
      "Ġprogramm": 5721,
      "blue": 5722,
      "Ġsealed": 5723,
      "ĠSecret": 5724,
      "ĠBur": 5725,
      "lf": 5726,
      "ĠEt": 5727,
      "Ġguer": 5728,
      "Ġgarden": 5729,
      "Ġworked": 5730,
      "kleid": 5731,
      "ĠdÃ©c": 5732,
      "women": 5733,
      "ĠAcc": 5734,
      "Ġfly": 5735,
      "omo": 5736,
      "Game": 5737,
      "Ġquite": 5738,
      "esome": 5739,
      "ĠAudio": 5740,
      "Ġ%": 5741,
      "Ġmil": 5742,
      "ĠUnder": 5743,
      "Ġshirts": 5744,
      "free": 5745,
      "aste": 5746,
      "asch": 5747,
      "Ñģ": 5748,
      "LES": 5749,
      "Ġtoys": 5750,
      "ĠSol": 5751,
      "ograf": 5752,
      "ĠState": 5753,
      "ĠTim": 5754,
      "Ġbracelet": 5755,
      "Ġcareer": 5756,
      "Ġabsol": 5757,
      "Ġhoodie": 5758,
      "ĠAnti": 5759,
      "itude": 5760,
      "lage": 5761,
      "Aus": 5762,
      "bur": 5763,
      "Ġconditions": 5764,
      "neakers": 5765,
      "Ġprot": 5766,
      "iking": 5767,
      "Ġresol": 5768,
      "ĠFahr": 5769,
      "ying": 5770,
      "ĠIr": 5771,
      "Ġ1960": 5772,
      "Ġvehicle": 5773,
      "ĠEuropean": 5774,
      "ĠRight": 5775,
      "Ġmaterials": 5776,
      "Ġterm": 5777,
      "bor": 5778,
      "Ġdocument": 5779,
      "Ġalready": 5780,
      "Ġprofession": 5781,
      "ĠVideo": 5782,
      "licht": 5783,
      "Genuine": 5784,
      "ĠEle": 5785,
      "ONT": 5786,
      "ĠCharles": 5787,
      "INAL": 5788,
      "ĠHandle": 5789,
      "Ġapplications": 5790,
      "Ġboot": 5791,
      "ĠSpiel": 5792,
      "Ġviel": 5793,
      "ande": 5794,
      "igr": 5795,
      "ĠCost": 5796,
      "ĠScott": 5797,
      "ĠRichard": 5798,
      "Ġpath": 5799,
      "lio": 5800,
      "osen": 5801,
      "aba": 5802,
      "ibles": 5803,
      "Ġeconomic": 5804,
      "halb": 5805,
      "Besonderheiten": 5806,
      "ECT": 5807,
      "werk": 5808,
      "epend": 5809,
      "Ġ1995": 5810,
      "Ġdamen": 5811,
      "uhr": 5812,
      "rable": 5813,
      "Ġexplores": 5814,
      "ĠPAR": 5815,
      "udd": 5816,
      "Ġscrew": 5817,
      "oute": 5818,
      "ĠTank": 5819,
      "Ġtracking": 5820,
      "ĠNov": 5821,
      "illiant": 5822,
      "ĠDiamond": 5823,
      "Ġwinter": 5824,
      "Series": 5825,
      "Ġ52": 5826,
      "ITY": 5827,
      "Ġtopics": 5828,
      "Ġknife": 5829,
      "Ġreference": 5830,
      "ĠSaint": 5831,
      "Ġslight": 5832,
      "Ġauthors": 5833,
      "2001": 5834,
      "PH": 5835,
      "ĠÃľ": 5836,
      "VINTAGE": 5837,
      "Ġenergy": 5838,
      "ĠMachine": 5839,
      "ommy": 5840,
      "ĠCord": 5841,
      "ĠZustand": 5842,
      "Ġcontribut": 5843,
      "Ġaccord": 5844,
      "pc": 5845,
      "hÃ¤ng": 5846,
      "ellig": 5847,
      "Ġplayed": 5848,
      "fang": 5849,
      "Ġdegli": 5850,
      "illy": 5851,
      "urniture": 5852,
      "Ġaltern": 5853,
      "gin": 5854,
      "ĠBoy": 5855,
      "lights": 5856,
      "Ġword": 5857,
      "terior": 5858,
      "ĠWheels": 5859,
      "acer": 5860,
      "Ġmix": 5861,
      "Ġmechan": 5862,
      "Ġartist": 5863,
      "Ġeines": 5864,
      "Ġdurante": 5865,
      "Ġital": 5866,
      "ĠSER": 5867,
      "Ġmilitary": 5868,
      "iling": 5869,
      "gings": 5870,
      "Also": 5871,
      "ictoria": 5872,
      "assette": 5873,
      "Ġapply": 5874,
      "BC": 5875,
      "Ġparents": 5876,
      "Ġdeck": 5877,
      "wide": 5878,
      "Ġwarranty": 5879,
      "ĠVari": 5880,
      "ĠHat": 5881,
      "Ġgoes": 5882,
      "ĠMAR": 5883,
      "Pre": 5884,
      "asons": 5885,
      "acks": 5886,
      "Ġoffice": 5887,
      "ĠBad": 5888,
      "ĠBundle": 5889,
      "entes": 5890,
      "unglasses": 5891,
      "Ġwife": 5892,
      "etto": 5893,
      "Ġhol": 5894,
      "ĠCARD": 5895,
      "haus": 5896,
      "Ġcases": 5897,
      "Ġcompl": 5898,
      "Ġbottle": 5899,
      "Ã¤u": 5900,
      "Marca": 5901,
      "zug": 5902,
      "ammen": 5903,
      "unting": 5904,
      "ĠCharger": 5905,
      "Ġeste": 5906,
      "arf": 5907,
      "TB": 5908,
      "Ġsoll": 5909,
      "idden": 5910,
      "ĠWool": 5911,
      "ĠMess": 5912,
      "Ġtell": 5913,
      "Ġfresh": 5914,
      "ĠPurple": 5915,
      "Ġcarry": 5916,
      "Ġeither": 5917,
      "istem": 5918,
      "Ġexcept": 5919,
      "ested": 5920,
      "arte": 5921,
      "iker": 5922,
      "ME": 5923,
      "Ġsafe": 5924,
      "urban": 5925,
      "Ġpositive": 5926,
      "cke": 5927,
      "wischen": 5928,
      "Ġdaughter": 5929,
      "ĠCut": 5930,
      "Tra": 5931,
      "ĠEbay": 5932,
      "ĠBelt": 5933,
      "ĠLace": 5934,
      "ĠPrin": 5935,
      "ushion": 5936,
      "Ġcelebr": 5937,
      "ĠHP": 5938,
      "leist": 5939,
      "Shipping": 5940,
      "Ġsig": 5941,
      "Ġcorn": 5942,
      "redit": 5943,
      "ĠYear": 5944,
      "mselves": 5945,
      "White": 5946,
      "Ġflex": 5947,
      "ĠCream": 5948,
      "ĠSingle": 5949,
      "Ġreflect": 5950,
      "ĠHonda": 5951,
      "Do": 5952,
      "ĠME": 5953,
      "Ġtitle": 5954,
      "Ġzip": 5955,
      "ĠCards": 5956,
      "ĠPants": 5957,
      "Ġresults": 5958,
      "ĠNote": 5959,
      "Ġdro": 5960,
      "bild": 5961,
      "Ġgovernment": 5962,
      "igs": 5963,
      "ĠProduct": 5964,
      "Ãľ": 5965,
      "ograp": 5966,
      "Ġnormal": 5967,
      "htt": 5968,
      "Ġuk": 5969,
      "Ġchapters": 5970,
      "hnen": 5971,
      "chs": 5972,
      "ancy": 5973,
      "Ġdriver": 5974,
      "THE": 5975,
      "ĠDescription": 5976,
      "Ġchanges": 5977,
      "ĠPA": 5978,
      "Ġalc": 5979,
      "Ġstraight": 5980,
      "ĠOpen": 5981,
      "ĠRec": 5982,
      "aires": 5983,
      "ĠAustralia": 5984,
      "ĠLi": 5985,
      "Ġmail": 5986,
      "Ġthemselves": 5987,
      "Ġones": 5988,
      "ehicle": 5989,
      "Ġwaist": 5990,
      "rican": 5991,
      "ĠSIL": 5992,
      "baby": 5993,
      "ocr": 5994,
      "Ġshop": 5995,
      "Ġlarg": 5996,
      "Ġbasic": 5997,
      "Ġitself": 5998,
      "ĠStory": 5999,
      "nee": 6000,
      "Ġsongs": 6001,
      "Ġeing": 6002,
      "Ġwarm": 6003,
      "unny": 6004,
      "win": 6005,
      "Ġrecent": 6006,
      "mod": 6007,
      "Ġprepar": 6008,
      "NA": 6009,
      "card": 6010,
      "OCK": 6011,
      "Ġaf": 6012,
      "Ġlif": 6013,
      "ĠFact": 6014,
      "Ġcert": 6015,
      "Ã©g": 6016,
      "ership": 6017,
      "Ġcustomers": 6018,
      "Ġsuff": 6019,
      "shop": 6020,
      "ĠGi": 6021,
      "While": 6022,
      "Ġdyn": 6023,
      "ĠHam": 6024,
      "alu": 6025,
      "ĠLittle": 6026,
      "ĠTE": 6027,
      "erve": 6028,
      "Ġeveryone": 6029,
      "Star": 6030,
      "gesch": 6031,
      "ĠPs": 6032,
      "super": 6033,
      "Ġtruth": 6034,
      "cut": 6035,
      "ateur": 6036,
      "iÃ¨re": 6037,
      "rian": 6038,
      "ĠQue": 6039,
      "Ġsugg": 6040,
      "ĠNM": 6041,
      "Ġaudio": 6042,
      "ĠChamp": 6043,
      "Ġdiamond": 6044,
      "Ed": 6045,
      "Ġfait": 6046,
      "hips": 6047,
      "Ġsobre": 6048,
      "Ġjordan": 6049,
      "ĠMary": 6050,
      "Ġeyes": 6051,
      "Water": 6052,
      "Ġcraft": 6053,
      "Ġfinds": 6054,
      "ĠPayPal": 6055,
      "Ġtut": 6056,
      "Ġ56": 6057,
      "rup": 6058,
      "ometer": 6059,
      "TG": 6060,
      "DI": 6061,
      "ĠModern": 6062,
      "cam": 6063,
      "ACE": 6064,
      "Ġchoice": 6065,
      "Ġfinish": 6066,
      "ĠCour": 6067,
      "Ġimprove": 6068,
      "Ġcit": 6069,
      "Ġyourself": 6070,
      "reath": 6071,
      "arger": 6072,
      "lies": 6073,
      "Ġbur": 6074,
      "Ġnecklace": 6075,
      "ĠPad": 6076,
      "ĠIndust": 6077,
      "Ġwild": 6078,
      "USB": 6079,
      "ibt": 6080,
      "ĠGirls": 6081,
      "ĠCook": 6082,
      "eless": 6083,
      "Ġsurpr": 6084,
      "pportun": 6085,
      "NO": 6086,
      "angle": 6087,
      "ĠPump": 6088,
      "Ġwalk": 6089,
      "disney": 6090,
      "Ġrespect": 6091,
      "away": 6092,
      "Ġisland": 6093,
      "Ġrefer": 6094,
      "iders": 6095,
      "ĠCOMP": 6096,
      "ĠStone": 6097,
      "ĠTwo": 6098,
      "Ġleading": 6099,
      "dd": 6100,
      "ĠEss": 6101,
      "Ġ1994": 6102,
      "ctive": 6103,
      "PR": 6104,
      "ĠJahre": 6105,
      "ICH": 6106,
      "Ġfamil": 6107,
      "antic": 6108,
      "Includ": 6109,
      "ĠEmb": 6110,
      "Ġkg": 6111,
      "oret": 6112,
      "amed": 6113,
      "ACH": 6114,
      "Ġfasc": 6115,
      "Ġdiff": 6116,
      "ciples": 6117,
      "ĠTravel": 6118,
      "ifi": 6119,
      "isa": 6120,
      "Ġresponsible": 6121,
      "bell": 6122,
      "imately": 6123,
      "VA": 6124,
      "Wir": 6125,
      "Ġmagazine": 6126,
      "friend": 6127,
      "Ġproduction": 6128,
      "Ġchallenges": 6129,
      "kins": 6130,
      "ĠRom": 6131,
      "Ġdeg": 6132,
      "cat": 6133,
      "asp": 6134,
      "year": 6135,
      "ered": 6136,
      "ĠSlim": 6137,
      "schluss": 6138,
      "Ġmac": 6139,
      "ĠEUR": 6140,
      "zuki": 6141,
      "Ġdaily": 6142,
      "ĠDown": 6143,
      "Ð¾Ð": 6144,
      "Ġpul": 6145,
      "Ġgear": 6146,
      "UND": 6147,
      "Ġnombre": 6148,
      "rea": 6149,
      "Ġobject": 6150,
      "Ġactually": 6151,
      "Ġworn": 6152,
      "Ġsection": 6153,
      "Ġwool": 6154,
      "ĠDamen": 6155,
      "Si": 6156,
      "ĠNon": 6157,
      "Ġvisit": 6158,
      "Ġpain": 6159,
      "Ġlui": 6160,
      "Ġju": 6161,
      "Ã©ro": 6162,
      "ĠStreet": 6163,
      "Ã¶s": 6164,
      "Ġfight": 6165,
      "Ġblu": 6166,
      "Up": 6167,
      "Perfect": 6168,
      "Ġimmedi": 6169,
      "Ġdopo": 6170,
      "cling": 6171,
      "Ġwish": 6172,
      "ĠRemote": 6173,
      "Ġaver": 6174,
      "ĠTeam": 6175,
      "TI": 6176,
      "ĠpiÃ¨": 6177,
      "ĠWestern": 6178,
      "Ġgalaxy": 6179,
      "Ġcette": 6180,
      "ooks": 6181,
      "ĠJust": 6182,
      "Ġrather": 6183,
      "ĠBal": 6184,
      "Ġsweater": 6185,
      "Ġdram": 6186,
      "Ġtaking": 6187,
      "Ġadapt": 6188,
      "Ġont": 6189,
      "Ġsports": 6190,
      "ĠSmith": 6191,
      "ĠWaterproof": 6192,
      "ĠLiter": 6193,
      "OE": 6194,
      "aine": 6195,
      "Los": 6196,
      "ĠAuthentic": 6197,
      "ĠJose": 6198,
      "ĠLes": 6199,
      "ressed": 6200,
      "ĠSy": 6201,
      "Ġcream": 6202,
      "ĠItem": 6203,
      "Ġdamaged": 6204,
      "itely": 6205,
      "Ge": 6206,
      "Ġmint": 6207,
      "lishing": 6208,
      "Ġinterpret": 6209,
      "ĠBear": 6210,
      "Ġtops": 6211,
      "Fil": 6212,
      "Nach": 6213,
      "Ġmissing": 6214,
      "Ġbelieve": 6215,
      "tes": 6216,
      "That": 6217,
      "Ġsomeone": 6218,
      "satz": 6219,
      "Red": 6220,
      "CR": 6221,
      "125": 6222,
      "motor": 6223,
      "ĠNE": 6224,
      "large": 6225,
      "ĠPremium": 6226,
      "mercial": 6227,
      "ĠYears": 6228,
      "iverse": 6229,
      "elst": 6230,
      "Ġimmer": 6231,
      "ĠLang": 6232,
      "Ġyellow": 6233,
      "ĠJo": 6234,
      "izard": 6235,
      "Ġgas": 6236,
      "rages": 6237,
      "Ġnation": 6238,
      "ocal": 6239,
      "atform": 6240,
      "Ġpod": 6241,
      "Ġnarr": 6242,
      "iesel": 6243,
      "Ġinnov": 6244,
      "Ġ;": 6245,
      "uta": 6246,
      "ients": 6247,
      "Ġago": 6248,
      "ls": 6249,
      "ingu": 6250,
      "www": 6251,
      "Ġchamp": 6252,
      "ĠPlayStation": 6253,
      "atives": 6254,
      "acional": 6255,
      "ulture": 6256,
      "ĠWi": 6257,
      "fall": 6258,
      "oration": 6259,
      "ĠPlan": 6260,
      "ĠPub": 6261,
      "ĠRound": 6262,
      "owder": 6263,
      "CM": 6264,
      "Ġprett": 6265,
      "Ġrc": 6266,
      "ĠQuality": 6267,
      "fÃ¼hr": 6268,
      "Ġtal": 6269,
      "Ġmol": 6270,
      "Ġrepair": 6271,
      "Ġopp": 6272,
      "Ġhelps": 6273,
      "wind": 6274,
      "Ġterrit": 6275,
      "ĠAtt": 6276,
      "Ġbeyond": 6277,
      "SA": 6278,
      "ĠFlex": 6279,
      "ĠSW": 6280,
      "Ġloved": 6281,
      "Pokemon": 6282,
      "Ġsmooth": 6283,
      "Ġoriginale": 6284,
      "Ġregard": 6285,
      "Ġwurden": 6286,
      "Ġdemon": 6287,
      "annt": 6288,
      "ĠRecord": 6289,
      "lymp": 6290,
      "ĠUniversal": 6291,
      "Ġtraining": 6292,
      "Ã¼nd": 6293,
      "Ġsearch": 6294,
      "hemat": 6295,
      "onse": 6296,
      "ĠUSPS": 6297,
      "etter": 6298,
      "ĠIll": 6299,
      "Ġcontro": 6300,
      "Ġperf": 6301,
      "Ġpatch": 6302,
      "Ġreach": 6303,
      "Ġexperiences": 6304,
      "Ġjo": 6305,
      "oda": 6306,
      "Ġtale": 6307,
      "gang": 6308,
      "ĠCloth": 6309,
      "Made": 6310,
      "Ġdise": 6311,
      "ISH": 6312,
      "Any": 6313,
      "VO": 6314,
      "Ġintroduction": 6315,
      "SM": 6316,
      "encia": 6317,
      "cious": 6318,
      "Ġamb": 6319,
      "OLL": 6320,
      "ibli": 6321,
      "Ġassoci": 6322,
      "ĠSoci": 6323,
      "Ġ54": 6324,
      "oven": 6325,
      "Form": 6326,
      "Ġmad": 6327,
      "Ġ800": 6328,
      "Ġseek": 6329,
      "VC": 6330,
      "Mens": 6331,
      "apple": 6332,
      "ĠDer": 6333,
      "ĠIncludes": 6334,
      "Ġcombine": 6335,
      "Ġschn": 6336,
      "ĠCanada": 6337,
      "ĠBrake": 6338,
      "icycle": 6339,
      "iere": 6340,
      "xas": 6341,
      "cas": 6342,
      "rig": 6343,
      "Ġsense": 6344,
      "ĠSony": 6345,
      "Ġedge": 6346,
      "usband": 6347,
      "Ġstop": 6348,
      "ĠJean": 6349,
      "ĠGun": 6350,
      "lem": 6351,
      "Artist": 6352,
      "ĠTouch": 6353,
      "Ġtransform": 6354,
      "ban": 6355,
      "watch": 6356,
      "reci": 6357,
      "ĠHeart": 6358,
      "ĠWild": 6359,
      "Ġbuilding": 6360,
      "charge": 6361,
      "Ġgio": 6362,
      "artz": 6363,
      "agne": 6364,
      "ĠEasy": 6365,
      "ĠCrystal": 6366,
      "Ġstato": 6367,
      "Ġpretty": 6368,
      "Ġcell": 6369,
      "Ġinstructions": 6370,
      "Ġliterature": 6371,
      "cu": 6372,
      "Number": 6373,
      "900": 6374,
      "Ġadjust": 6375,
      "Ġbear": 6376,
      "FR": 6377,
      "Ġsou": 6378,
      "Ġcritical": 6379,
      "Ġcontr": 6380,
      "Ġinspir": 6381,
      "Ġopportun": 6382,
      "duction": 6383,
      "Ġidea": 6384,
      "ĠHeat": 6385,
      "enger": 6386,
      "***": 6387,
      "ĠCro": 6388,
      "ylinder": 6389,
      "vention": 6390,
      "ums": 6391,
      "usammen": 6392,
      "ĠprÃ©s": 6393,
      "illow": 6394,
      "Ġcompan": 6395,
      "aden": 6396,
      "Ah": 6397,
      "ĠPlate": 6398,
      "IKE": 6399,
      "sey": 6400,
      ".-": 6401,
      "Ġmurder": 6402,
      "Gl": 6403,
      "onne": 6404,
      "icol": 6405,
      "ionale": 6406,
      "Ġfort": 6407,
      "Ġcord": 6408,
      "Ġexamples": 6409,
      "Ġmonitor": 6410,
      "silver": 6411,
      "ĠPen": 6412,
      "Ġiphone": 6413,
      "John": 6414,
      "ency": 6415,
      "ĠRain": 6416,
      "Ġrecogn": 6417,
      "Ġbesch": 6418,
      "ĠSpace": 6419,
      "Ġultra": 6420,
      "pond": 6421,
      "Ġlisted": 6422,
      "Bu": 6423,
      "Release": 6424,
      "ĠCare": 6425,
      "Ġexerc": 6426,
      "Ġbrake": 6427,
      "gun": 6428,
      "ĠJesus": 6429,
      "rada": 6430,
      "Ġnetwork": 6431,
      "Ġ?": 6432,
      "elly": 6433,
      "ĠBi": 6434,
      "Ġdetermin": 6435,
      "Ġven": 6436,
      "Ġtutt": 6437,
      "Ġsimply": 6438,
      "Ġjournal": 6439,
      "Ġ85": 6440,
      "ĠEsp": 6441,
      "Res": 6442,
      "Ġaffect": 6443,
      "ondo": 6444,
      "icos": 6445,
      "Ġbrings": 6446,
      "Ġadventure": 6447,
      "Ġsomet": 6448,
      "Ġstars": 6449,
      "ĠSus": 6450,
      "Ġauthentic": 6451,
      "Ġsandals": 6452,
      "Ġtree": 6453,
      "Ġbags": 6454,
      "Ġbiet": 6455,
      "Ġ1993": 6456,
      "ĠLock": 6457,
      "Ġbattle": 6458,
      "ĠGames": 6459,
      "deck": 6460,
      "Ġfaith": 6461,
      "ĠSK": 6462,
      "where": 6463,
      "Ġentertain": 6464,
      "ĠBusiness": 6465,
      "ĠUm": 6466,
      "Ġ1992": 6467,
      "emp": 6468,
      "Ġfavorite": 6469,
      "Ġpark": 6470,
      "Ġdoing": 6471,
      "Ġstay": 6472,
      "ĠDriver": 6473,
      "Ġholid": 6474,
      "iro": 6475,
      "ĠIntel": 6476,
      "Ġplaying": 6477,
      "Ġattention": 6478,
      "Ġterms": 6479,
      "icago": 6480,
      "Ġwireless": 6481,
      "Ġvent": 6482,
      "ĠCAN": 6483,
      "Ġray": 6484,
      "Ġpaid": 6485,
      "addle": 6486,
      "ĠLOT": 6487,
      "Ġhoch": 6488,
      "Ġanti": 6489,
      "ault": 6490,
      "Ġadapter": 6491,
      "ĠInch": 6492,
      "ĠMetall": 6493,
      "ĠDire": 6494,
      "uz": 6495,
      "ISS": 6496,
      "Ġpair": 6497,
      "ached": 6498,
      "ĠDS": 6499,
      "Ġbus": 6500,
      "ĠPER": 6501,
      "Mon": 6502,
      "stÃ¤nd": 6503,
      "ffect": 6504,
      "ĠGirl": 6505,
      "Ġmemory": 6506,
      "ĠSpray": 6507,
      "Ġclothes": 6508,
      "edition": 6509,
      "ceed": 6510,
      "Ġaspects": 6511,
      "ĠEast": 6512,
      "Player": 6513,
      "WD": 6514,
      "1999": 6515,
      "ĠSSD": 6516,
      "Ġsull": 6517,
      "opping": 6518,
      "Ġcharges": 6519,
      "Ġserie": 6520,
      "ĠDES": 6521,
      "Ġindustry": 6522,
      "aga": 6523,
      "SK": 6524,
      "ĠEqu": 6525,
      "Ġrit": 6526,
      "Ġservices": 6527,
      "Ġsnow": 6528,
      "UG": 6529,
      "ĠLouis": 6530,
      "BE": 6531,
      "ĠProm": 6532,
      "bal": 6533,
      "ho": 6534,
      "jordan": 6535,
      "ĠIncluded": 6536,
      "ĠSpr": 6537,
      "Ich": 6538,
      "ĠCool": 6539,
      "ĠweiÃŁ": 6540,
      "Ġfra": 6541,
      "uly": 6542,
      "leit": 6543,
      "Author": 6544,
      "ĠRoman": 6545,
      "Ġsecurity": 6546,
      "abilit": 6547,
      "inium": 6548,
      "ieg": 6549,
      "Ġvend": 6550,
      "itation": 6551,
      "iator": 6552,
      "Ġloves": 6553,
      "heim": 6554,
      "ĠIntern": 6555,
      "xy": 6556,
      "Ġbrush": 6557,
      "bes": 6558,
      "Ġgets": 6559,
      "ĠGas": 6560,
      "Ġheat": 6561,
      "Ġthird": 6562,
      "Ġhonda": 6563,
      "gie": 6564,
      "ĠSummer": 6565,
      "Door": 6566,
      "Ġleast": 6567,
      "blem": 6568,
      "Off": 6569,
      "rix": 6570,
      "Ġbright": 6571,
      "ĠMK": 6572,
      "antie": 6573,
      "eta": 6574,
      "Ġsimilar": 6575,
      "ĠCons": 6576,
      "PT": 6577,
      "Ġdream": 6578,
      "umes": 6579,
      "Ġtrying": 6580,
      "prÃ¨s": 6581,
      "Leg": 6582,
      "Ġru": 6583,
      "Ġtrav": 6584,
      "rang": 6585,
      "Ġinstit": 6586,
      "ivi": 6587,
      "anie": 6588,
      "ĠPOST": 6589,
      "ĠPiece": 6590,
      "ĠHealth": 6591,
      "ibile": 6592,
      "ĠChinese": 6593,
      "ĠAdvent": 6594,
      "ĠWay": 6595,
      "Ã¼lle": 6596,
      "ption": 6597,
      "hs": 6598,
      "ĠRay": 6599,
      "iance": 6600,
      "king": 6601,
      "ĠGuitar": 6602,
      "ennis": 6603,
      "Ġbank": 6604,
      "Ġsequ": 6605,
      "hin": 6606,
      "Ġcreated": 6607,
      "osc": 6608,
      "ĠEmp": 6609,
      "Ġbehav": 6610,
      "like": 6611,
      "ĠSensor": 6612,
      "ĠOE": 6613,
      "Ġtu": 6614,
      "ĠPortable": 6615,
      "Ġtraditional": 6616,
      "ĠIsland": 6617,
      "green": 6618,
      "Ġchem": 6619,
      "Ġbuck": 6620,
      "aver": 6621,
      "iams": 6622,
      "LEN": 6623,
      "Ġscratches": 6624,
      "TON": 6625,
      "imin": 6626,
      "idered": 6627,
      "aub": 6628,
      "ĠLogo": 6629,
      "ĠBeg": 6630,
      "stall": 6631,
      "ĠAugust": 6632,
      "Pol": 6633,
      "Ġchair": 6634,
      "Ġdelivered": 6635,
      "Ġregular": 6636,
      "ifts": 6637,
      "pril": 6638,
      "rd": 6639,
      "Ġchurch": 6640,
      "cciÃ³n": 6641,
      "orb": 6642,
      "ĠGro": 6643,
      "gc": 6644,
      "acqu": 6645,
      "unge": 6646,
      "icas": 6647,
      "Ġloss": 6648,
      "Ġminutes": 6649,
      "Ġsche": 6650,
      "Ġcontroller": 6651,
      "Box": 6652,
      "Ġquesto": 6653,
      "Ġheld": 6654,
      "tain": 6655,
      "asonic": 6656,
      "Ġbird": 6657,
      "IGINAL": 6658,
      "PLEASE": 6659,
      "ĠCir": 6660,
      "Ġuseful": 6661,
      "Ġsuccessful": 6662,
      "dem": 6663,
      "atura": 6664,
      "Ġcentral": 6665,
      "ĠShorts": 6666,
      "AME": 6667,
      "Ġactivities": 6668,
      "Ġmulti": 6669,
      "Del": 6670,
      "ĠSee": 6671,
      "ĠAu": 6672,
      "ancial": 6673,
      "ĠMiss": 6674,
      "andy": 6675,
      "ĠTeil": 6676,
      "ULL": 6677,
      "Ġsafety": 6678,
      "alled": 6679,
      "orsche": 6680,
      "ĠArmy": 6681,
      "Ġthanks": 6682,
      "Ġcouple": 6683,
      "Ġconcepts": 6684,
      "Ġml": 6685,
      "honda": 6686,
      "otal": 6687,
      "ĠExp": 6688,
      "night": 6689,
      "ulated": 6690,
      "Ġconstruction": 6691,
      "Ġstarted": 6692,
      "appe": 6693,
      "Pay": 6694,
      "ĠAUTO": 6695,
      "Motor": 6696,
      "otos": 6697,
      "Ġrag": 6698,
      "Ġwonderful": 6699,
      "Ġgest": 6700,
      "aped": 6701,
      "ĠKinder": 6702,
      "anza": 6703,
      "bens": 6704,
      "ĠPass": 6705,
      "101": 6706,
      "ĠUr": 6707,
      "ajo": 6708,
      "Ġmusical": 6709,
      "acc": 6710,
      "oga": 6711,
      "ĠRot": 6712,
      "lier": 6713,
      "ĠPract": 6714,
      "sa": 6715,
      "Ġbien": 6716,
      "ĠDist": 6717,
      "IK": 6718,
      "Sl": 6719,
      "Ġ700": 6720,
      "uminium": 6721,
      "ĠFair": 6722,
      "Ġgrande": 6723,
      "obi": 6724,
      "Ġmask": 6725,
      "Ġsupply": 6726,
      "Ġminor": 6727,
      "Ġwants": 6728,
      "Ġexamines": 6729,
      "orno": 6730,
      "Ġcomfortable": 6731,
      "ĠAU": 6732,
      "Ġrim": 6733,
      "Vol": 6734,
      "Ġsusp": 6735,
      "Ġadvert": 6736,
      "Ġtail": 6737,
      "CA": 6738,
      "Ġcoffee": 6739,
      "Ġisn": 6740,
      "ierra": 6741,
      "Ġbitte": 6742,
      "atory": 6743,
      "Ġeffic": 6744,
      "Ġbass": 6745,
      "Rem": 6746,
      "ruit": 6747,
      "Ġpressure": 6748,
      "crit": 6749,
      "Ġallows": 6750,
      "Ġmagic": 6751,
      "ĠTimes": 6752,
      "Ġwhose": 6753,
      "Ġcenter": 6754,
      "Ġchoose": 6755,
      "Ġspl": 6756,
      "MENT": 6757,
      "Thank": 6758,
      "Ġ1950": 6759,
      "ouv": 6760,
      "ĠFrame": 6761,
      "odd": 6762,
      "Ġ180": 6763,
      "ĠWeb": 6764,
      "ĠSat": 6765,
      "ologies": 6766,
      "Univers": 6767,
      "Ġwent": 6768,
      "ĠDuty": 6769,
      "Ġordered": 6770,
      "ĠVW": 6771,
      "ĠHolo": 6772,
      "ĠLCD": 6773,
      "ĠXbox": 6774,
      "ĠMS": 6775,
      "otes": 6776,
      "Auf": 6777,
      "part": 6778,
      "Ġfest": 6779,
      "Ã¤ch": 6780,
      "Ġformula": 6781,
      "ĠVER": 6782,
      "Ġmoment": 6783,
      "uar": 6784,
      "ÃŃcul": 6785,
      "ĠOffice": 6786,
      "Port": 6787,
      "hall": 6788,
      "Ġcarefully": 6789,
      "Ġeffects": 6790,
      "Ġscen": 6791,
      "you": 6792,
      "igher": 6793,
      "Package": 6794,
      "Ãªme": 6795,
      "illed": 6796,
      "abb": 6797,
      "ĠLeft": 6798,
      "abeth": 6799,
      "inde": 6800,
      "Ġcommunication": 6801,
      "Ġwenn": 6802,
      "Ġorganiz": 6803,
      "ĠMartin": 6804,
      "aben": 6805,
      "ĠGeneral": 6806,
      "Ġextrem": 6807,
      "ĠSlee": 6808,
      "aco": 6809,
      "vey": 6810,
      "Class": 6811,
      "Ġeffective": 6812,
      "ĠTrad": 6813,
      "Ġeinfach": 6814,
      "gerÃ¤t": 6815,
      "istry": 6816,
      "Ġdurable": 6817,
      "Ġuses": 6818,
      "ĠAdult": 6819,
      "Ġcontent": 6820,
      "Ġrain": 6821,
      "ĠWindows": 6822,
      "ĠMAN": 6823,
      "Ġcombined": 6824,
      "master": 6825,
      "ĠHaw": 6826,
      "hem": 6827,
      "IAL": 6828,
      "Ġbalance": 6829,
      "rum": 6830,
      "etzt": 6831,
      "kauf": 6832,
      "Ġdont": 6833,
      "ĠStretch": 6834,
      "ĠÃī": 6835,
      "Ġweiter": 6836,
      "ĠInc": 6837,
      "Ġvest": 6838,
      "Ġwallet": 6839,
      "Ġsud": 6840,
      "hammer": 6841,
      "more": 6842,
      "Micro": 6843,
      "ĠVINTAGE": 6844,
      "elo": 6845,
      "Ġpero": 6846,
      "kes": 6847,
      "Ġbeach": 6848,
      "Ġmovement": 6849,
      "ĠSnow": 6850,
      "ĠProdukt": 6851,
      "Ġelse": 6852,
      "ĠVis": 6853,
      "ĠJu": 6854,
      "ĠOVP": 6855,
      "tery": 6856,
      "arl": 6857,
      "Ġsignificant": 6858,
      "ucci": 6859,
      "Ġpanini": 6860,
      "ĠWelt": 6861,
      "ĠChain": 6862,
      "undred": 6863,
      "ĠMill": 6864,
      "pm": 6865,
      "Love": 6866,
      "Vers": 6867,
      "Ġthank": 6868,
      "Ġwhether": 6869,
      "ĠDIS": 6870,
      "ĠHall": 6871,
      "Ġplug": 6872,
      "ĠConsole": 6873,
      "INK": 6874,
      "ĠSUP": 6875,
      "uno": 6876,
      "Ġgran": 6877,
      "ĠHeavy": 6878,
      "road": 6879,
      "cos": 6880,
      "OME": 6881,
      "Ġbelie": 6882,
      "encer": 6883,
      "pert": 6884,
      "onom": 6885,
      "rait": 6886,
      "ĠaÃ±os": 6887,
      "ĠFood": 6888,
      "Ġtreatment": 6889,
      "ogle": 6890,
      "weise": 6891,
      "Ġplays": 6892,
      "ema": 6893,
      "unde": 6894,
      "Ġsort": 6895,
      "based": 6896,
      "ĠBay": 6897,
      "ĠChurch": 6898,
      "Ġwindow": 6899,
      "Ġsav": 6900,
      "stick": 6901,
      "audi": 6902,
      "Ġsometimes": 6903,
      "isse": 6904,
      "Ġstrength": 6905,
      "Ġ1991": 6906,
      "Ġpoints": 6907,
      "known": 6908,
      "Ġanimal": 6909,
      "Ġgoods": 6910,
      "inding": 6911,
      "ika": 6912,
      "Ġpremi": 6913,
      "ĠIV": 6914,
      "umbers": 6915,
      "ĠKunst": 6916,
      "Bei": 6917,
      "ĠTag": 6918,
      "Ġamount": 6919,
      "ĠDem": 6920,
      "Ġpc": 6921,
      "Ġcual": 6922,
      "Ġtall": 6923,
      "ĠSanta": 6924,
      "Fast": 6925,
      "power": 6926,
      "ĠNav": 6927,
      "Ġinterested": 6928,
      "oise": 6929,
      "Ġsoul": 6930,
      "Ġhusband": 6931,
      "PER": 6932,
      "Christ": 6933,
      "rog": 6934,
      "Ġacadem": 6935,
      "Ġmarks": 6936,
      "ĠFrancis": 6937,
      "Ġ95": 6938,
      "ĠRam": 6939,
      "ĠOct": 6940,
      "Ġmes": 6941,
      "post": 6942,
      "point": 6943,
      "uchte": 6944,
      "Co": 6945,
      "Ġanaly": 6946,
      "Ġrev": 6947,
      "Ġnorth": 6948,
      "ĠPlayer": 6949,
      "ĠCalifornia": 6950,
      "Num": 6951,
      "Ġmas": 6952,
      "Ġseine": 6953,
      "messer": 6954,
      "onia": 6955,
      "istics": 6956,
      "Ro": 6957,
      "Ġsel": 6958,
      "ĠRoom": 6959,
      "ĠScale": 6960,
      "ubehÃ¶r": 6961,
      "Ġautomat": 6962,
      "druck": 6963,
      "ĠBaseball": 6964,
      "ĠSupport": 6965,
      "Ġusually": 6966,
      "ĠLin": 6967,
      "Ġrace": 6968,
      "ĠDiv": 6969,
      "ĠLights": 6970,
      "VI": 6971,
      "edia": 6972,
      "Ġsatisfied": 6973,
      "ooter": 6974,
      "riage": 6975,
      "Ġpanel": 6976,
      "Ġgeb": 6977,
      "aupt": 6978,
      "Ġgeneration": 6979,
      "Ġsource": 6980,
      "ĠSU": 6981,
      "ucky": 6982,
      "life": 6983,
      "Ġpotential": 6984,
      "ĠFE": 6985,
      "ucks": 6986,
      "Ġstuff": 6987,
      "ĠCompany": 6988,
      "ĠSpring": 6989,
      "ĠMur": 6990,
      "sony": 6991,
      "IVER": 6992,
      "reek": 6993,
      "Ġencou": 6994,
      "ĠTools": 6995,
      "Ġfuel": 6996,
      "Ġpeace": 6997,
      "zi": 6998,
      "Ġsleep": 6999,
      "Ġpendant": 7000,
      "anish": 7001,
      "Ġlatest": 7002,
      "Suit": 7003,
      "Ġhelping": 7004,
      "she": 7005,
      "ĠLevel": 7006,
      "ĠtambiÃ©n": 7007,
      "LET": 7008,
      "Design": 7009,
      "aler": 7010,
      "Ġsuitable": 7011,
      "ĠFly": 7012,
      "ĠVery": 7013,
      "auch": 7014,
      "Ġhero": 7015,
      "ĠText": 7016,
      "phen": 7017,
      "Ġcore": 7018,
      "uito": 7019,
      "ĠController": 7020,
      "igung": 7021,
      "Ġerfol": 7022,
      "Ġnue": 7023,
      "Ġtv": 7024,
      "icket": 7025,
      "Interchange": 7026,
      "wand": 7027,
      "urance": 7028,
      "Ġbegins": 7029,
      "ĠEarth": 7030,
      "ĠMake": 7031,
      "itage": 7032,
      "ĠToys": 7033,
      "ĠMOT": 7034,
      "Ġbmw": 7035,
      "Ã¶he": 7036,
      "Ġkon": 7037,
      "aught": 7038,
      "inny": 7039,
      "ilitary": 7040,
      "Ġfloor": 7041,
      "ĠLaptop": 7042,
      "Ġbumper": 7043,
      "Ġtape": 7044,
      "AW": 7045,
      "Buy": 7046,
      "ĠAutomatic": 7047,
      "ĠMagic": 7048,
      "enda": 7049,
      "hard": 7050,
      "Ġloro": 7051,
      "ribution": 7052,
      "ĠSep": 7053,
      "iga": 7054,
      "john": 7055,
      "ĠPolo": 7056,
      "born": 7057,
      "apes": 7058,
      "ĠPict": 7059,
      "Ġpurpose": 7060,
      "Ġstamp": 7061,
      "ĠDenim": 7062,
      "ĠRED": 7063,
      "omi": 7064,
      "Ġimage": 7065,
      "ALED": 7066,
      "ega": 7067,
      "alen": 7068,
      "Marque": 7069,
      "Ġviene": 7070,
      "ĠPolit": 7071,
      "otic": 7072,
      "Ġmovies": 7073,
      "tember": 7074,
      "enth": 7075,
      "Ġblood": 7076,
      "ĠBLUE": 7077,
      "PE": 7078,
      "ĠChildren": 7079,
      "Front": 7080,
      "Ġbroken": 7081,
      "Ġinteresting": 7082,
      "pin": 7083,
      "ĠCasual": 7084,
      "Ġdedic": 7085,
      "Ġcant": 7086,
      "ĠiPad": 7087,
      "Ġretro": 7088,
      "ĠPerfect": 7089,
      "Ġconv": 7090,
      "fig": 7091,
      "Ġadidas": 7092,
      "ĠGermany": 7093,
      "ĠKauf": 7094,
      "Ġphysical": 7095,
      "abei": 7096,
      "Ġfunko": 7097,
      "ockey": 7098,
      "nahme": 7099,
      "ï¸": 7100,
      "illet": 7101,
      "Ġmembers": 7102,
      "Ġmk": 7103,
      "orie": 7104,
      "UNG": 7105,
      "ĠPaper": 7106,
      "ĠFO": 7107,
      "Ġfinally": 7108,
      "athroom": 7109,
      "Ġ140": 7110,
      "quality": 7111,
      "Ġproviding": 7112,
      "ĠQual": 7113,
      "ERE": 7114,
      "Ġshoulder": 7115,
      "Ġowned": 7116,
      "mac": 7117,
      "IAN": 7118,
      "Ġsite": 7119,
      "Ġcharm": 7120,
      "Ġaud": 7121,
      "Ġconven": 7122,
      "ĠLiefer": 7123,
      "YL": 7124,
      "ĠAqu": 7125,
      "Ġpic": 7126,
      "Ġtypes": 7127,
      "ĠMex": 7128,
      "pool": 7129,
      "Ġsigns": 7130,
      "aqu": 7131,
      "Ġbatt": 7132,
      "Ġmeaning": 7133,
      "Ġtom": 7134,
      "Ġcrew": 7135,
      "tb": 7136,
      "ĠOz": 7137,
      "ĠTraining": 7138,
      "geben": 7139,
      "Ġdiesem": 7140,
      "erts": 7141,
      "Ġpresented": 7142,
      "ignet": 7143,
      "Ġgradu": 7144,
      "Ġcomic": 7145,
      "Items": 7146,
      "ĠIndian": 7147,
      "imming": 7148,
      "Ġherren": 7149,
      "ĠPlease": 7150,
      "Ġplaces": 7151,
      "licher": 7152,
      "ĠPolyester": 7153,
      "ĠStri": 7154,
      "Ġperm": 7155,
      "Ġvoice": 7156,
      "ktiv": 7157,
      "atched": 7158,
      "Most": 7159,
      "Ġspiritual": 7160,
      "umen": 7161,
      "osi": 7162,
      "dress": 7163,
      "ĠED": 7164,
      "ilf": 7165,
      "ĠMedia": 7166,
      "fon": 7167,
      "ĠHAND": 7168,
      "azon": 7169,
      "Ġorange": 7170,
      "Ġsac": 7171,
      "schuhe": 7172,
      "Ġdann": 7173,
      "ĠMOD": 7174,
      "Ġ925": 7175,
      "Ġcompon": 7176,
      "Ġcivil": 7177,
      "Ġkomp": 7178,
      "Ġtransl": 7179,
      "Ġpag": 7180,
      "Ġkitchen": 7181,
      "Ġearrings": 7182,
      "Ġnut": 7183,
      "Ġduty": 7184,
      "ĠMarvel": 7185,
      "ĠGel": 7186,
      "ĠYOUR": 7187,
      "ĠBatter": 7188,
      "Ġlug": 7189,
      "Ġemploy": 7190,
      "Ġincor": 7191,
      "Ġfeature": 7192,
      "mont": 7193,
      "Ġtested": 7194,
      "tage": 7195,
      "Ġsous": 7196,
      "Ġfigur": 7197,
      "lict": 7198,
      "Ġdresses": 7199,
      "Ġelle": 7200,
      "Ġdemonstr": 7201,
      "Ġvict": 7202,
      "Ġlower": 7203,
      "opper": 7204,
      "ĠBank": 7205,
      "ohl": 7206,
      "Ġillustrations": 7207,
      "ĠTele": 7208,
      "iffer": 7209,
      "Ġachieve": 7210,
      "450": 7211,
      "added": 7212,
      "'d": 7213,
      "Ġformer": 7214,
      "atti": 7215,
      "Ġcad": 7216,
      "ONG": 7217,
      "urns": 7218,
      "Ġfactory": 7219,
      "AMP": 7220,
      "ĠFol": 7221,
      "Ġdevice": 7222,
      "Ġnavy": 7223,
      "Length": 7224,
      "ĠVel": 7225,
      "ĠAvailable": 7226,
      "Ġstudent": 7227,
      "Ġ1989": 7228,
      "Ġgegen": 7229,
      "ĠSILVER": 7230,
      "ï¸ı": 7231,
      "Ġcovered": 7232,
      "encil": 7233,
      "Ġquant": 7234,
      "Ġgenuine": 7235,
      "ĠCONDITION": 7236,
      "ĠRunning": 7237,
      "vest": 7238,
      "isex": 7239,
      "pir": 7240,
      "Ġtherm": 7241,
      "ĠMirror": 7242,
      "down": 7243,
      "PO": 7244,
      "ĠForce": 7245,
      "Ġclock": 7246,
      "will": 7247,
      "atre": 7248,
      "ĠPed": 7249,
      "apy": 7250,
      "Trans": 7251,
      "Ġblank": 7252,
      "Ġleur": 7253,
      "Ġfloral": 7254,
      "Ġrelev": 7255,
      "otive": 7256,
      "ĠLear": 7257,
      "Ġhasta": 7258,
      "Ke": 7259,
      "Ġcompletely": 7260,
      "Ġvous": 7261,
      "ĠHenry": 7262,
      "Ġprimer": 7263,
      "rieb": 7264,
      "Ġbeginning": 7265,
      "rence": 7266,
      "pink": 7267,
      "Ġq": 7268,
      "Ġxs": 7269,
      "ĠUP": 7270,
      "ogy": 7271,
      "Ġancient": 7272,
      "ÂłĠÂłĠ": 7273,
      "Ġrubber": 7274,
      "Ġrelated": 7275,
      "Ġdanger": 7276,
      "Ġdeveloped": 7277,
      "Ġfascin": 7278,
      "Ġrose": 7279,
      "ĠDEL": 7280,
      "lieÃŁ": 7281,
      "Ġtried": 7282,
      "bird": 7283,
      "Ġzwischen": 7284,
      "fi": 7285,
      "Non": 7286,
      "IRE": 7287,
      "Mus": 7288,
      "Ġrele": 7289,
      "ĠWaist": 7290,
      "ĠExpress": 7291,
      "Ġseiner": 7292,
      "Ġbelow": 7293,
      "Ġnell": 7294,
      "Ġtransport": 7295,
      "ĠScience": 7296,
      "Ġincl": 7297,
      "Ã¤ufer": 7298,
      "iera": 7299,
      "edom": 7300,
      "Ġresource": 7301,
      "hicles": 7302,
      "ĠFits": 7303,
      "ila": 7304,
      "Ġtrust": 7305,
      "ĠGear": 7306,
      "Ġinstr": 7307,
      "acher": 7308,
      "Ġstation": 7309,
      "ĠSolid": 7310,
      "uses": 7311,
      "Ġbackground": 7312,
      "teen": 7313,
      "Ġ49": 7314,
      "ĠPers": 7315,
      "Ġleaving": 7316,
      "Ġassess": 7317,
      "afety": 7318,
      "ĠNWT": 7319,
      "Ġlaptop": 7320,
      "Ġreport": 7321,
      "Je": 7322,
      "Ġrepro": 7323,
      "ĠHa": 7324,
      "urz": 7325,
      "ĠMel": 7326,
      "pping": 7327,
      "Ġphotographs": 7328,
      "Ġthinking": 7329,
      "Ġ750": 7330,
      "AH": 7331,
      "ĠCenter": 7332,
      "Main": 7333,
      "riving": 7334,
      "ĠGrund": 7335,
      "edan": 7336,
      "Dr": 7337,
      "omin": 7338,
      "ĠFest": 7339,
      "ĠPoly": 7340,
      "ĠBrush": 7341,
      "trans": 7342,
      "Ġteaching": 7343,
      "Ġperspective": 7344,
      "ĠRos": 7345,
      "ĠMercedes": 7346,
      "ĠPatch": 7347,
      "Ġdefect": 7348,
      "rado": 7349,
      "ĠOther": 7350,
      "Ġjud": 7351,
      "iac": 7352,
      "Ġmort": 7353,
      "TY": 7354,
      "Large": 7355,
      "Ġlab": 7356,
      "Ã¤s": 7357,
      "Ġrecipes": 7358,
      "nung": 7359,
      "ĠÃĸ": 7360,
      "220": 7361,
      "Ġ256": 7362,
      "osaic": 7363,
      "Ġfle": 7364,
      "ublisher": 7365,
      "ĠSigned": 7366,
      "Air": 7367,
      "angers": 7368,
      "Ġvisual": 7369,
      "Ġnegative": 7370,
      "ĠVir": 7371,
      "ĠCer": 7372,
      "hetic": 7373,
      "Suitable": 7374,
      "abile": 7375,
      "isted": 7376,
      "ski": 7377,
      "Ġweeks": 7378,
      "ĠSon": 7379,
      "Ġflash": 7380,
      "ĠEp": 7381,
      "ĠDragon": 7382,
      "iciÃ³n": 7383,
      "ĠDar": 7384,
      "Play": 7385,
      "Ġ160": 7386,
      "ĠCe": 7387,
      "Ġtout": 7388,
      "oups": 7389,
      "ĠFlat": 7390,
      "Ãºn": 7391,
      "ĠLee": 7392,
      "ĠRest": 7393,
      "allel": 7394,
      "gent": 7395,
      "Ġcause": 7396,
      "ĠPriv": 7397,
      "ministr": 7398,
      "Ġpolitics": 7399,
      "ARS": 7400,
      "aje": 7401,
      "ĠBob": 7402,
      "inks": 7403,
      "Ġthreat": 7404,
      "ĠNord": 7405,
      "hold": 7406,
      "ÃŃs": 7407,
      "good": 7408,
      "Ġfishing": 7409,
      "Whe": 7410,
      "Ġwid": 7411,
      "Ġprevent": 7412,
      "ĠPhoto": 7413,
      "iced": 7414,
      "Ġappreci": 7415,
      "Ġblock": 7416,
      "unction": 7417,
      "Used": 7418,
      "Ġexpert": 7419,
      "Ġthick": 7420,
      "ickey": 7421,
      "Ġna": 7422,
      "right": 7423,
      "Ġtells": 7424,
      "arter": 7425,
      "Ġfrequ": 7426,
      "ĠToyota": 7427,
      "Ġhers": 7428,
      "nehmen": 7429,
      "mercedes": 7430,
      "Ġgesch": 7431,
      "Ġunless": 7432,
      "Ġauss": 7433,
      "ĠAusgabe": 7434,
      "zioni": 7435,
      "ĠFriend": 7436,
      "ccer": 7437,
      "Ġavant": 7438,
      "imano": 7439,
      "ĠCarbon": 7440,
      "Ġstainless": 7441,
      "Blue": 7442,
      "Ġusb": 7443,
      "hlen": 7444,
      "Only": 7445,
      "cles": 7446,
      "Ġlots": 7447,
      "ĠTC": 7448,
      "Ã±o": 7449,
      "ĠFan": 7450,
      "Ġgrowing": 7451,
      "Ġdefinitely": 7452,
      "Ġsecure": 7453,
      "Ġcode": 7454,
      "MT": 7455,
      "Ġlegal": 7456,
      "Ġinvolved": 7457,
      "Ġsales": 7458,
      "Ġtag": 7459,
      "Ġdiverse": 7460,
      "Ġbowman": 7461,
      "Ġsays": 7462,
      "ĠBill": 7463,
      "don": 7464,
      "Ġbidding": 7465,
      "Ġbrought": 7466,
      "ĠBuck": 7467,
      "Ġmi": 7468,
      "Ã¼h": 7469,
      "icken": 7470,
      "Ġblouse": 7471,
      "Ġfish": 7472,
      "chts": 7473,
      "Ġstretch": 7474,
      "xford": 7475,
      "ĠGall": 7476,
      "ĠCarol": 7477,
      "AX": 7478,
      "kku": 7479,
      "avidson": 7480,
      "ĠPa": 7481,
      "Ġequipment": 7482,
      "Ġlabel": 7483,
      "Tipo": 7484,
      "ĠStat": 7485,
      "ĠAfrica": 7486,
      "ĠPattern": 7487,
      "ĠStÃ¼ck": 7488,
      "Ġpil": 7489,
      "Ġsor": 7490,
      "amt": 7491,
      "Ġapplication": 7492,
      "Ġtold": 7493,
      "140": 7494,
      "Ġesta": 7495,
      "zu": 7496,
      "rÃ©": 7497,
      "Ġ07": 7498,
      "Ġfuer": 7499,
      "ĠShoulder": 7500,
      "hose": 7501,
      "sil": 7502,
      "screen": 7503,
      "umph": 7504,
      "ĠSterling": 7505,
      "ĠOper": 7506,
      "yan": 7507,
      "ĠHerren": 7508,
      "anna": 7509,
      "LD": 7510,
      "ĠBoot": 7511,
      "usch": 7512,
      "ead": 7513,
      "ĠWer": 7514,
      "Ġslim": 7515,
      "mine": 7516,
      "Your": 7517,
      "Ġbecomes": 7518,
      "Ġfans": 7519,
      "Ġchance": 7520,
      "ĠArbeit": 7521,
      "Ġsistem": 7522,
      "rice": 7523,
      "Ġletter": 7524,
      "ĠRange": 7525,
      "Ġinsight": 7526,
      "iefs": 7527,
      "QUE": 7528,
      "Ġfault": 7529,
      "illes": 7530,
      "Ġrod": 7531,
      "Ġgt": 7532,
      "Ġimper": 7533,
      "180": 7534,
      "Ġhelmet": 7535,
      "ĠCre": 7536,
      "Best": 7537,
      "iente": 7538,
      "ebook": 7539,
      "scape": 7540,
      "Ġshare": 7541,
      "arget": 7542,
      "RY": 7543,
      "ĠJahren": 7544,
      "ĠGrÃ¶ÃŁe": 7545,
      "Ã¶l": 7546,
      "ĠFern": 7547,
      "Ġwedding": 7548,
      "ĠShoe": 7549,
      "Da": 7550,
      "erry": 7551,
      "MO": 7552,
      "Ġcompos": 7553,
      "ĠWide": 7554,
      "vw": 7555,
      "igo": 7556,
      "Ġwash": 7557,
      "Ġbatteries": 7558,
      "FC": 7559,
      "ĠSelf": 7560,
      "spir": 7561,
      "iquid": 7562,
      "210": 7563,
      "Ġrequest": 7564,
      "ĠExcellent": 7565,
      "Ġforma": 7566,
      "aren": 7567,
      "Ġconsole": 7568,
      "Cle": 7569,
      "Pe": 7570,
      "Ġselbst": 7571,
      "toy": 7572,
      "rical": 7573,
      "Ġ99": 7574,
      "Ġmist": 7575,
      "Bre": 7576,
      "asaki": 7577,
      "wers": 7578,
      "ĠStock": 7579,
      "osto": 7580,
      "ĠEth": 7581,
      "ĠStrip": 7582,
      "yre": 7583,
      "ounds": 7584,
      "voice": 7585,
      "ÃŃn": 7586,
      "Ġjapan": 7587,
      "Ġproof": 7588,
      "Hard": 7589,
      "rif": 7590,
      "ĠWhat": 7591,
      "ĠCoin": 7592,
      "Ġsensor": 7593,
      "ĠItaly": 7594,
      "AZ": 7595,
      "Cal": 7596,
      "LL": 7597,
      "Ġexcit": 7598,
      "uten": 7599,
      "ĠWW": 7600,
      "PRO": 7601,
      "ĠAfrican": 7602,
      "Ġclin": 7603,
      "ĠMore": 7604,
      "ĠLuc": 7605,
      "Ġoverall": 7606,
      "Ã©mon": 7607,
      "isten": 7608,
      "erem": 7609,
      "umn": 7610,
      "fits": 7611,
      "Ġguid": 7612,
      "ufen": 7613,
      "ĠKitchen": 7614,
      "1998": 7615,
      "ardo": 7616,
      "ĠLauren": 7617,
      "cue": 7618,
      "enna": 7619,
      "Ġtrain": 7620,
      "west": 7621,
      "ĠRacing": 7622,
      "ĠCru": 7623,
      "ĠMonitor": 7624,
      "Ġwrite": 7625,
      "ritten": 7626,
      "Ġbeim": 7627,
      "piece": 7628,
      "Ġtips": 7629,
      "Ġpurchasing": 7630,
      "ĠPoint": 7631,
      "Ġbroad": 7632,
      "Pattern": 7633,
      "Ġreplac": 7634,
      "Ġarchitect": 7635,
      "Ġcarbon": 7636,
      "Ġram": 7637,
      "Ġelement": 7638,
      "Featured": 7639,
      "ĠIndia": 7640,
      "bbe": 7641,
      "ĠPlug": 7642,
      "eron": 7643,
      "thlet": 7644,
      "Ġmobile": 7645,
      "Ġselling": 7646,
      "leb": 7647,
      "Ġpolice": 7648,
      "ÃŃt": 7649,
      "Ġspray": 7650,
      "Ġstates": 7651,
      "Ġpes": 7652,
      "ĠMix": 7653,
      "imb": 7654,
      "aison": 7655,
      "grund": 7656,
      "Ġmode": 7657,
      "Ġsticker": 7658,
      "Ġsz": 7659,
      "obl": 7660,
      "hib": 7661,
      "Ġboxes": 7662,
      "ĠRiver": 7663,
      "Ġbegan": 7664,
      "ĠDry": 7665,
      "Ġtab": 7666,
      "ously": 7667,
      "ĠEduc": 7668,
      "ubble": 7669,
      "zimmer": 7670,
      "Ġmission": 7671,
      "ĠAnth": 7672,
      "Full": 7673,
      "ĠCraft": 7674,
      "Bo": 7675,
      "Har": 7676,
      "Ġrelease": 7677,
      "ĠProtector": 7678,
      "âĤ¬": 7679,
      "Ġprogress": 7680,
      "aura": 7681,
      "Ġattract": 7682,
      "ĠMond": 7683,
      "Ġcitt": 7684,
      "oming": 7685,
      "Ġrecon": 7686,
      "ĠJoe": 7687,
      "GL": 7688,
      "Ġban": 7689,
      "Act": 7690,
      "organ": 7691,
      "Ġexample": 7692,
      "schutz": 7693,
      "Gu": 7694,
      "TC": 7695,
      "ĠFROM": 7696,
      "Ġstrategies": 7697,
      "750": 7698,
      "Ġdip": 7699,
      "Ġbere": 7700,
      "ĠmÃ¶glich": 7701,
      "Ġreligious": 7702,
      "SI": 7703,
      "Ġbon": 7704,
      "Char": 7705,
      "SO": 7706,
      "Ġdonde": 7707,
      "Ġfrag": 7708,
      "Ġlay": 7709,
      "Ġaim": 7710,
      "lag": 7711,
      "âľ": 7712,
      "hÃ¤lt": 7713,
      "Ġverschied": 7714,
      "Ġther": 7715,
      "Ġfilms": 7716,
      "Ġhop": 7717,
      "izabeth": 7718,
      "ĠLog": 7719,
      "Ġstyl": 7720,
      "ĠHis": 7721,
      "aws": 7722,
      "Ġrail": 7723,
      "Ġanimals": 7724,
      "uh": 7725,
      "ĠGOLD": 7726,
      "Ġzwei": 7727,
      "ĠHo": 7728,
      "ulate": 7729,
      "ĠFlor": 7730,
      "Ġfashion": 7731,
      "Ġstructure": 7732,
      "estic": 7733,
      "ĠKen": 7734,
      "ĠSD": 7735,
      "Ġmedical": 7736,
      "Ġanderen": 7737,
      "ĠHose": 7738,
      "ĠWHITE": 7739,
      "Ġdesde": 7740,
      "Ġtun": 7741,
      "American": 7742,
      "ĠLos": 7743,
      "orough": 7744,
      "ĠFall": 7745,
      "igne": 7746,
      "Ġgreatest": 7747,
      "Ġ240": 7748,
      "ĠTree": 7749,
      "Ġexpress": 7750,
      "issenschaft": 7751,
      "illo": 7752,
      "GER": 7753,
      "oured": 7754,
      "ĠGuard": 7755,
      "Ġspect": 7756,
      "Condition": 7757,
      "veless": 7758,
      "tail": 7759,
      "Ġihre": 7760,
      "rors": 7761,
      "OLO": 7762,
      "ĠTrim": 7763,
      "ĠBeach": 7764,
      "lections": 7765,
      "Ġsust": 7766,
      "Ġmagn": 7767,
      "ĠMyst": 7768,
      "Ġ58": 7769,
      "Ġexhaust": 7770,
      "selling": 7771,
      "ĠCHE": 7772,
      "zial": 7773,
      "Ġhose": 7774,
      "Ġspeaker": 7775,
      "unicip": 7776,
      "arse": 7777,
      "Ġinterior": 7778,
      "Ġchanged": 7779,
      "GHz": 7780,
      "ĠGU": 7781,
      "Ã¨res": 7782,
      "Ġcardigan": 7783,
      "olars": 7784,
      "Ġability": 7785,
      "ĠProfessional": 7786,
      "onio": 7787,
      "ception": 7788,
      "Sw": 7789,
      "Ġcoming": 7790,
      "irty": 7791,
      "ultural": 7792,
      "anci": 7793,
      "Mult": 7794,
      "arian": 7795,
      "Ġprincipal": 7796,
      "Ġborn": 7797,
      "pad": 7798,
      "cn": 7799,
      "elstahl": 7800,
      "Ġfail": 7801,
      "uls": 7802,
      "ĠXXL": 7803,
      "ĠComb": 7804,
      "ĠFabric": 7805,
      "ĠTemper": 7806,
      "Ġpractices": 7807,
      "Ġfarm": 7808,
      "Ġpred": 7809,
      "ifer": 7810,
      "Ġstickers": 7811,
      "ĠBNWT": 7812,
      "Ġdeutsch": 7813,
      "ented": 7814,
      "reifen": 7815,
      "Ġkid": 7816,
      "Ġaqu": 7817,
      "Ġ900": 7818,
      "ilding": 7819,
      "Ġdirectly": 7820,
      "ĠEll": 7821,
      "pi": 7822,
      "ework": 7823,
      "Farbe": 7824,
      "Ce": 7825,
      "unkt": 7826,
      "ĠBron": 7827,
      "1996": 7828,
      "Genre": 7829,
      "osure": 7830,
      "Weight": 7831,
      "IND": 7832,
      "Ġwaterproof": 7833,
      "Ġlu": 7834,
      "ĠSecond": 7835,
      "',": 7836,
      "obs": 7837,
      "Ġroy": 7838,
      "Ġforces": 7839,
      "ĠExtra": 7840,
      "650": 7841,
      "Ġmant": 7842,
      "Ġadvice": 7843,
      "MER": 7844,
      "ĠSuit": 7845,
      "Ġfix": 7846,
      "ĠWedding": 7847,
      "pf": 7848,
      "Ġreci": 7849,
      "ĠTie": 7850,
      "Ġimmediately": 7851,
      "ĠPor": 7852,
      "ĠPanel": 7853,
      "Ġlav": 7854,
      "covery": 7855,
      "Ġ220": 7856,
      "Ġbat": 7857,
      "Ġguard": 7858,
      "td": 7859,
      "ĠBlu": 7860,
      "aque": 7861,
      "Ġsurround": 7862,
      "ĠInstit": 7863,
      "olic": 7864,
      "ĠFactory": 7865,
      "arging": 7866,
      "ierre": 7867,
      "lu": 7868,
      "class": 7869,
      "ĠJoseph": 7870,
      "Through": 7871,
      "Ġslip": 7872,
      "mond": 7873,
      "ĠTHIS": 7874,
      "ĠPAN": 7875,
      "cro": 7876,
      "Ġsteering": 7877,
      "ĠPerformance": 7878,
      "Ġbeauty": 7879,
      "ĠDAY": 7880,
      "Ġfamous": 7881,
      "ĠCorn": 7882,
      "ĠUse": 7883,
      "Ġstreet": 7884,
      "Ġotherwise": 7885,
      "mber": 7886,
      "Ġmatt": 7887,
      "Ġhundred": 7888,
      "Ðº": 7889,
      "Ġble": 7890,
      "ĠProtection": 7891,
      "Ġhous": 7892,
      "Ġincreasing": 7893,
      "Ġpokemon": 7894,
      "ĠDam": 7895,
      "Ġciv": 7896,
      "ĠSchw": 7897,
      "real": 7898,
      "ĠMarket": 7899,
      "Ġofficial": 7900,
      "Ġdomin": 7901,
      "uÃ©s": 7902,
      "ĠBird": 7903,
      "Ġmap": 7904,
      "Ġvalu": 7905,
      "Ġoutdoor": 7906,
      "Ġpleased": 7907,
      "Ġlevels": 7908,
      "Fran": 7909,
      "awasaki": 7910,
      "Movie": 7911,
      "rost": 7912,
      "Ġsilk": 7913,
      "Ġcolon": 7914,
      "ileage": 7915,
      "::": 7916,
      "essen": 7917,
      "itzer": 7918,
      "opy": 7919,
      "Ġpremier": 7920,
      "Ġast": 7921,
      "Reference": 7922,
      "ĠSEALED": 7923,
      "Ġange": 7924,
      "Ġcold": 7925,
      "ÃŃan": 7926,
      "usc": 7927,
      "ĠÃ¡": 7928,
      "ĠDiesel": 7929,
      "Ġdir": 7930,
      "ĠWare": 7931,
      "Bitte": 7932,
      "fire": 7933,
      "ipt": 7934,
      "uxury": 7935,
      "160": 7936,
      "okÃ©mon": 7937,
      "wart": 7938,
      "Ġherself": 7939,
      "hew": 7940,
      "Ġdove": 7941,
      "asis": 7942,
      "grade": 7943,
      "sn": 7944,
      "igar": 7945,
      "angel": 7946,
      "ĠRepair": 7947,
      "Ġconvers": 7948,
      "imiento": 7949,
      "uda": 7950,
      "Ġsea": 7951,
      "Although": 7952,
      "ĠPap": 7953,
      "unque": 7954,
      "ashm": 7955,
      "Ġerst": 7956,
      "cha": 7957,
      "Ġtoyota": 7958,
      "ĠMY": 7959,
      "Ġ1988": 7960,
      "Ġcrystal": 7961,
      "ĠSelect": 7962,
      "Ġcompatible": 7963,
      "ĠEner": 7964,
      "Ġtheoret": 7965,
      "Ð»": 7966,
      "ĠLord": 7967,
      "ĠONE": 7968,
      "Ġbef": 7969,
      "ÃŃas": 7970,
      "eschreib": 7971,
      "Ġdou": 7972,
      "ĠSilk": 7973,
      "Ġgibt": 7974,
      "Its": 7975,
      "Ġwriter": 7976,
      "lan": 7977,
      "lets": 7978,
      "1997": 7979,
      "Ġglasses": 7980,
      "ĠOUT": 7981,
      "Ġtransfer": 7982,
      "ARGE": 7983,
      "Ġdifference": 7984,
      "kte": 7985,
      "ĠRubber": 7986,
      "Ġrate": 7987,
      "Ġepis": 7988,
      "avour": 7989,
      "Ġsoftware": 7990,
      "oso": 7991,
      "Ġfunny": 7992,
      "ralph": 7993,
      "ĠaÃ±o": 7994,
      "Ġtruly": 7995,
      "ĠBlade": 7996,
      "Ġserious": 7997,
      "Ġfundament": 7998,
      "ĠFle": 7999,
      "ĠLive": 8000,
      "udad": 8001,
      "enders": 8002,
      "Ġrings": 8003,
      "ĠâĤ¬": 8004,
      "Ġrelationships": 8005,
      "aber": 8006,
      "Ġinvest": 8007,
      "130": 8008,
      "ATHER": 8009,
      "masch": 8010,
      "Ġbrilliant": 8011,
      "ĠProject": 8012,
      "ĠFlash": 8013,
      "ovember": 8014,
      "Ġdust": 8015,
      "Ġcolors": 8016,
      "Ġpubblic": 8017,
      "Ġrein": 8018,
      "ĠManagement": 8019,
      "ĠTurn": 8020,
      "Ġinstead": 8021,
      "ĠCos": 8022,
      "icine": 8023,
      "ĠRRP": 8024,
      "small": 8025,
      "Ġ47": 8026,
      "Ġrecommended": 8027,
      "ĠRail": 8028,
      "isl": 8029,
      "Ġpurple": 8030,
      "Ġreli": 8031,
      "Ġlace": 8032,
      "ĠABS": 8033,
      "mag": 8034,
      "Ġshoe": 8035,
      "Lo": 8036,
      "Ġillustrated": 8037,
      "Publisher": 8038,
      "Ġbasketball": 8039,
      "Then": 8040,
      "ĠRun": 8041,
      "Ġgrowth": 8042,
      "Ġadvanced": 8043,
      "Ġpoor": 8044,
      "Ġliber": 8045,
      "Ġblade": 8046,
      "240": 8047,
      "Ġtrip": 8048,
      "ienne": 8049,
      "Ġvillage": 8050,
      "Ġhigher": 8051,
      "ĠrÃ©g": 8052,
      "Ġ1920": 8053,
      "Ġtod": 8054,
      "IONS": 8055,
      "Ġmonth": 8056,
      "ĠpiÃ¨ce": 8057,
      "itty": 8058,
      "ĠID": 8059,
      "ĠSkirt": 8060,
      "Ġshock": 8061,
      "Ġdri": 8062,
      "Ġrack": 8063,
      "Ġcheap": 8064,
      "AIL": 8065,
      "Ġvision": 8066,
      "ĠSlip": 8067,
      "Ġhabit": 8068,
      "ĠBoys": 8069,
      "mail": 8070,
      "Ġspring": 8071,
      "fum": 8072,
      "Ġexplore": 8073,
      "360": 8074,
      "IRT": 8075,
      "ĠDaniel": 8076,
      "Ġnecessary": 8077,
      "WN": 8078,
      "ĠORIGINAL": 8079,
      "oted": 8080,
      "EE": 8081,
      "cken": 8082,
      "ĠPu": 8083,
      "Ã¤nder": 8084,
      "Ġoptions": 8085,
      "Ġ03": 8086,
      "Ġkeyboard": 8087,
      "Ġbrother": 8088,
      "ĠKnife": 8089,
      "Ġ08": 8090,
      "ĠBRAND": 8091,
      "world": 8092,
      "overs": 8093,
      "Ġprivate": 8094,
      "Fe": 8095,
      "empl": 8096,
      "Here": 8097,
      "Ġslow": 8098,
      "Ġaccepted": 8099,
      "Ġdig": 8100,
      "âĦ": 8101,
      "ouver": 8102,
      "iges": 8103,
      "plifier": 8104,
      "Ġnin": 8105,
      "ĠKap": 8106,
      "ĠAssembly": 8107,
      "ribe": 8108,
      "Ġdollar": 8109,
      "Antique": 8110,
      "ĠShow": 8111,
      "chargeable": 8112,
      "ĠZahl": 8113,
      "ĠInformation": 8114,
      "whe": 8115,
      "ocol": 8116,
      "bb": 8117,
      "Ġindepend": 8118,
      "Ġmystery": 8119,
      "Ġscholars": 8120,
      "Ġfiction": 8121,
      "verter": 8122,
      "Ġantique": 8123,
      "ĠSpirit": 8124,
      "Cap": 8125,
      "insi": 8126,
      "Ġremember": 8127,
      "uawei": 8128,
      "FA": 8129,
      "ĠFra": 8130,
      "undo": 8131,
      "AIN": 8132,
      "rylic": 8133,
      "Two": 8134,
      "Ġautograph": 8135,
      "ĠIhnen": 8136,
      "Ġscene": 8137,
      "Ġconsidered": 8138,
      "EY": 8139,
      "ĠUnion": 8140,
      "ĠPac": 8141,
      "kit": 8142,
      "ĠVersion": 8143,
      "rell": 8144,
      "Ġforward": 8145,
      "Ġdecis": 8146,
      "ĠCall": 8147,
      "Ġ72": 8148,
      "ĠJones": 8149,
      "ĠNick": 8150,
      "Ġdenim": 8151,
      "Ġwire": 8152,
      "First": 8153,
      "Sec": 8154,
      "Ġtube": 8155,
      "bereich": 8156,
      "Ġdish": 8157,
      "SON": 8158,
      "Ġgiving": 8159,
      "Ġupper": 8160,
      "ĠDef": 8161,
      "102": 8162,
      "Ġstone": 8163,
      "ASH": 8164,
      "amel": 8165,
      "arness": 8166,
      "Ġinstallation": 8167,
      "rane": 8168,
      "ether": 8169,
      "Go": 8170,
      "Ġcours": 8171,
      "atinum": 8172,
      "Fin": 8173,
      "Ġbirthday": 8174,
      "funko": 8175,
      "Ġrights": 8176,
      "ĠHolz": 8177,
      "fant": 8178,
      "occ": 8179,
      "ulpt": 8180,
      "amas": 8181,
      "ĠYoung": 8182,
      "utely": 8183,
      "ĠPrim": 8184,
      "ĠSocial": 8185,
      "Ġaccomp": 8186,
      "oice": 8187,
      "Ġpassion": 8188,
      "rote": 8189,
      "itere": 8190,
      "ĠÃª": 8191,
      "Ġtalk": 8192,
      "Ġax": 8193,
      "Ġ1986": 8194,
      "Ġlic": 8195,
      "Ġnotes": 8196,
      "Ġbek": 8197,
      "Ġsyn": 8198,
      "ĠProp": 8199,
      "ountain": 8200,
      "Ġrisk": 8201,
      "Ġice": 8202,
      "ĠIP": 8203,
      "Ġnei": 8204,
      "ĠREC": 8205,
      "OWER": 8206,
      "leather": 8207,
      "orio": 8208,
      "atten": 8209,
      "Ġadjustable": 8210,
      "Ġstamps": 8211,
      "ĠPublishing": 8212,
      "idades": 8213,
      "ĠShop": 8214,
      "Ġcostume": 8215,
      "oust": 8216,
      "pected": 8217,
      "Ã¼hr": 8218,
      "Ġbuyers": 8219,
      "Ġbin": 8220,
      "icians": 8221,
      "ĠBracelet": 8222,
      "iliar": 8223,
      "Ġpra": 8224,
      "Ġswim": 8225,
      "mc": 8226,
      "Ġhumor": 8227,
      "ographed": 8228,
      "utsche": 8229,
      "iform": 8230,
      "ĠHAVE": 8231,
      "Ġpartie": 8232,
      "105": 8233,
      "ĠJournal": 8234,
      "ĠMiles": 8235,
      "ictorian": 8236,
      "ĠDead": 8237,
      "Ġforms": 8238,
      "atori": 8239,
      "Ġ06": 8240,
      "acked": 8241,
      "SL": 8242,
      "Ġpainting": 8243,
      "wicklung": 8244,
      "udes": 8245,
      "cil": 8246,
      "ĠLeague": 8247,
      "ĠWerk": 8248,
      "ĠSeason": 8249,
      "Ġeveryday": 8250,
      "Ġcomment": 8251,
      "Ã¨le": 8252,
      "Ġsped": 8253,
      "Ġouvrages": 8254,
      "Ġ1987": 8255,
      "Ġ130": 8256,
      "aris": 8257,
      "ĠFeder": 8258,
      "Date": 8259,
      "ICT": 8260,
      "undene": 8261,
      "ez": 8262,
      "Ġbutt": 8263,
      "Ġ98": 8264,
      "ĠJr": 8265,
      "ĠJumper": 8266,
      "Ġfinancial": 8267,
      "cision": 8268,
      "ĠSom": 8269,
      "ĠEL": 8270,
      ");": 8271,
      "chte": 8272,
      "Ġprinciples": 8273,
      "ĠGeneration": 8274,
      "Ġfirm": 8275,
      "Ã¶ff": 8276,
      "Ġfore": 8277,
      "ĠNecklace": 8278,
      "ĠZoll": 8279,
      "Ġbackpack": 8280,
      "Euro": 8281,
      "ĠIhre": 8282,
      "izio": 8283,
      "ĠLook": 8284,
      "ĠClip": 8285,
      "Ġcompr": 8286,
      "Once": 8287,
      "zw": 8288,
      "Ġultimate": 8289,
      "oms": 8290,
      "Ġresearchers": 8291,
      "Ġwin": 8292,
      "Ġmart": 8293,
      "Ġautomatic": 8294,
      "zara": 8295,
      "ĠRET": 8296,
      "Ġresponse": 8297,
      "ikes": 8298,
      "Ġhit": 8299,
      "ĠPU": 8300,
      "Ġhin": 8301,
      "ĠMuse": 8302,
      "Ġlines": 8303,
      "Ġscientific": 8304,
      "appoint": 8305,
      "iembre": 8306,
      "gency": 8307,
      "ĠBreak": 8308,
      "ĠKind": 8309,
      "hart": 8310,
      "Ġfee": 8311,
      "ĠCoffee": 8312,
      "ĠPair": 8313,
      "ĠBY": 8314,
      "cean": 8315,
      "atures": 8316,
      "Ġic": 8317,
      "ugh": 8318,
      "ĠGOOD": 8319,
      "ĠAluminum": 8320,
      "Ġprefer": 8321,
      "Ġcontain": 8322,
      "OSE": 8323,
      "ĠMoon": 8324,
      "oks": 8325,
      "Ġconnection": 8326,
      "ĠWooden": 8327,
      "ĠEye": 8328,
      "Ġrise": 8329,
      "ĠEB": 8330,
      "orf": 8331,
      "Thanks": 8332,
      "oly": 8333,
      "ĠWand": 8334,
      "Ġstrip": 8335,
      "acle": 8336,
      "Ġlogo": 8337,
      "Ġbud": 8338,
      "igli": 8339,
      "Ġintellig": 8340,
      "ĠEv": 8341,
      "ĠANY": 8342,
      "Ġjoy": 8343,
      "Ġinterview": 8344,
      "Ġdragon": 8345,
      "URN": 8346,
      "ĠMr": 8347,
      "avia": 8348,
      "ĠDra": 8349,
      "ĠIde": 8350,
      "Ġopened": 8351,
      "iegel": 8352,
      "Ġprobably": 8353,
      "stock": 8354,
      "oking": 8355,
      "Â²": 8356,
      "Ġreplace": 8357,
      "Ġliterary": 8358,
      "ĠSweater": 8359,
      "ods": 8360,
      "Ġstudio": 8361,
      "Ġwest": 8362,
      "riday": 8363,
      "ĠVert": 8364,
      "Ġtrim": 8365,
      "Ġessays": 8366,
      "Ġbegin": 8367,
      "Many": 8368,
      "Ġlegend": 8369,
      "Ġinvoice": 8370,
      "itions": 8371,
      "aud": 8372,
      "abul": 8373,
      "Ġmouse": 8374,
      "ORY": 8375,
      "Ġpacked": 8376,
      "NumÃ©ro": 8377,
      "ĠLie": 8378,
      "Ġcapital": 8379,
      "ĠCompact": 8380,
      "si": 8381,
      "Ġign": 8382,
      "Ġlp": 8383,
      "filter": 8384,
      "Ġguarantee": 8385,
      "ULT": 8386,
      "Ġpopulation": 8387,
      "bike": 8388,
      "ni": 8389,
      "ĠDDR": 8390,
      "ĠOb": 8391,
      "american": 8392,
      "Ġprojects": 8393,
      "miss": 8394,
      "BMW": 8395,
      "isk": 8396,
      "Ġdamit": 8397,
      "Ġclaim": 8398,
      "Ġnamed": 8399,
      "neaker": 8400,
      "Ġsam": 8401,
      "Ġec": 8402,
      "ĠSR": 8403,
      "Ġid": 8404,
      "Ġpel": 8405,
      "Ġcharging": 8406,
      "Ġfascinating": 8407,
      "ĠQueen": 8408,
      "ĠPublic": 8409,
      "irtschaft": 8410,
      "Ġdrop": 8411,
      "ĠfranÃ§": 8412,
      "Ġseit": 8413,
      "ĠBottle": 8414,
      "plus": 8415,
      "great": 8416,
      "ĠFlower": 8417,
      "Ġopening": 8418,
      "mlung": 8419,
      "ĠVeg": 8420,
      "ĠTail": 8421,
      "iar": 8422,
      "Ġgri": 8423,
      "next": 8424,
      "See": 8425,
      "struction": 8426,
      "ĠWalk": 8427,
      "Ġevidence": 8428,
      "ĠAnimal": 8429,
      "Ġcoins": 8430,
      "otion": 8431,
      "ĠMi": 8432,
      "ĠWasser": 8433,
      "ĠShell": 8434,
      "ĠTab": 8435,
      "Ġcopy": 8436,
      "ĠScrew": 8437,
      "Elle": 8438,
      "Disc": 8439,
      "ĠJac": 8440,
      "izioni": 8441,
      "legant": 8442,
      "Ġphilosophy": 8443,
      "Ġces": 8444,
      "Ġgrip": 8445,
      "ĠHoodie": 8446,
      "ao": 8447,
      "best": 8448,
      "lywood": 8449,
      "ĠElite": 8450,
      "ĠNor": 8451,
      "Ġweather": 8452,
      "rupt": 8453,
      "ĠAF": 8454,
      "Long": 8455,
      "ustral": 8456,
      "Ġpolitique": 8457,
      "Ġlimit": 8458,
      "Ġrespond": 8459,
      "ĠAbs": 8460,
      "Ġ05": 8461,
      "ĠMemory": 8462,
      "asi": 8463,
      "oker": 8464,
      "Ġavoid": 8465,
      "Ġteachers": 8466,
      "ORD": 8467,
      "ĠDIY": 8468,
      "ĠAnniversary": 8469,
      "ATER": 8470,
      "Ġanth": 8471,
      "Ġihr": 8472,
      "Ġtea": 8473,
      "athan": 8474,
      "Ġinfluence": 8475,
      "Sport": 8476,
      "Ġcow": 8477,
      "Ġ1985": 8478,
      "Ġknows": 8479,
      "Ġvot": 8480,
      "Ġclip": 8481,
      "Ent": 8482,
      "Ġmiddle": 8483,
      "Â«": 8484,
      "Ġimportance": 8485,
      "Ã¶t": 8486,
      "ANK": 8487,
      "BI": 8488,
      "ashmere": 8489,
      "active": 8490,
      "Ġpoems": 8491,
      "volut": 8492,
      "ugio": 8493,
      "Hot": 8494,
      "ĠSpl": 8495,
      "ĠmÃªme": 8496,
      "ĠBern": 8497,
      "ĠId": 8498,
      "ĠzurÃ¼ck": 8499,
      "idente": 8500,
      "eschreibung": 8501,
      "ĠÃº": 8502,
      "ĠRog": 8503,
      "ĠOFF": 8504,
      "Ġmoving": 8505,
      "Ġearth": 8506,
      "grad": 8507,
      "ĠPRE": 8508,
      "Ġpatterns": 8509,
      "color": 8510,
      "Ġburn": 8511,
      "Ġtot": 8512,
      "wt": 8513,
      "Ġslightly": 8514,
      "istor": 8515,
      "Ġsouth": 8516,
      "Ġwooden": 8517,
      "Ġrapid": 8518,
      "Ġgrade": 8519,
      "ropri": 8520,
      "ĠFuel": 8521,
      "ĠÃªtre": 8522,
      "Adidas": 8523,
      "Stand": 8524,
      "Ġstage": 8525,
      "Ġspeakers": 8526,
      "Well": 8527,
      "hesive": 8528,
      "Ġdecl": 8529,
      "ĠPLEASE": 8530,
      "alogue": 8531,
      "Diese": 8532,
      "rik": 8533,
      "Ġplush": 8534,
      "ĠCrew": 8535,
      "mel": 8536,
      "amiento": 8537,
      "Ġgroups": 8538,
      "ĠBrad": 8539,
      "Ġchallenge": 8540,
      "fortun": 8541,
      "ÃŃo": 8542,
      "ĠDelivery": 8543,
      "Ġhabe": 8544,
      "ĠestÃ¡": 8545,
      "Ġ01": 8546,
      "ĠFÃ¼r": 8547,
      "ĠML": 8548,
      "Ġalone": 8549,
      "More": 8550,
      "IER": 8551,
      "ĠBew": 8552,
      "Ġtip": 8553,
      "bles": 8554,
      "yamaha": 8555,
      "Ġsetting": 8556,
      "Ġ450": 8557,
      "ATA": 8558,
      "Ext": 8559,
      "Ġlors": 8560,
      "ĠGarantie": 8561,
      "Ġolder": 8562,
      "Ġ1984": 8563,
      "Ġpoetry": 8564,
      "ĠCow": 8565,
      "ulations": 8566,
      "uitt": 8567,
      "ĠCheck": 8568,
      "Ġplants": 8569,
      "Ġtags": 8570,
      "PM": 8571,
      "bury": 8572,
      "ĠComputer": 8573,
      "ĠBeige": 8574,
      "Ġimplement": 8575,
      "ĠPACK": 8576,
      "Ġresources": 8577,
      "Ġlibro": 8578,
      "ĠDeutschland": 8579,
      "kosten": 8580,
      "Ġerhalten": 8581,
      "Ġcontinue": 8582,
      "ĠWashington": 8583,
      "ibly": 8584,
      "ĠPeople": 8585,
      "Ġwatches": 8586,
      "ikini": 8587,
      "aching": 8588,
      "Ġupdated": 8589,
      "Ġcommercial": 8590,
      "ĠBon": 8591,
      "ĠAndroid": 8592,
      "ĠCollege": 8593,
      "kids": 8594,
      "Ġprimo": 8595,
      "ril": 8596,
      "Ġdetect": 8597,
      "ĠBritain": 8598,
      "ANS": 8599,
      "ĠSchutz": 8600,
      "Ġlarger": 8601,
      "Ġoct": 8602,
      "berty": 8603,
      "Ġapproaches": 8604,
      "essa": 8605,
      "ĠPickup": 8606,
      "ĠSolar": 8607,
      "Ġarmy": 8608,
      "ressor": 8609,
      "olds": 8610,
      "wall": 8611,
      "Ġinde": 8612,
      "Ġwebs": 8613,
      "Ġcaso": 8614,
      "ĠFoot": 8615,
      "Ġoffic": 8616,
      "tex": 8617,
      "ĠWorks": 8618,
      "azda": 8619,
      "Ġjewelry": 8620,
      "Ġplaced": 8621,
      "inking": 8622,
      "ugeot": 8623,
      "ancing": 8624,
      "UAL": 8625,
      "Ġprocesses": 8626,
      "Ġaccurate": 8627,
      "step": 8628,
      "Even": 8629,
      "halter": 8630,
      "Ġfear": 8631,
      "Ġdieses": 8632,
      "iza": 8633,
      "ĠItalian": 8634,
      "Ġ04": 8635,
      "look": 8636,
      "ĠTechnology": 8637,
      "keiten": 8638,
      "Ġreceiving": 8639,
      "ĠOp": 8640,
      "Ġturns": 8641,
      "Ġvit": 8642,
      "leistung": 8643,
      "galement": 8644,
      "Ġanswers": 8645,
      "ulf": 8646,
      "ativo": 8647,
      "itial": 8648,
      "Med": 8649,
      "ĠNylon": 8650,
      "Ġoption": 8651,
      "Ġproced": 8652,
      "Ġpurse": 8653,
      "ĠAlbum": 8654,
      "ĠJewelry": 8655,
      "Ġfamilies": 8656,
      "rael": 8657,
      "Ġelite": 8658,
      "ĠgÃ©n": 8659,
      "prise": 8660,
      "ĠInternet": 8661,
      "ober": 8662,
      "icious": 8663,
      "Ġthous": 8664,
      "Ġvie": 8665,
      "adel": 8666,
      "ĠWolf": 8667,
      "Ġjou": 8668,
      "respond": 8669,
      "Ġtemperature": 8670,
      "ĠSky": 8671,
      "Ġsan": 8672,
      "Ġ09": 8673,
      "piel": 8674,
      "ĠFour": 8675,
      "Ġsia": 8676,
      "Ġreligion": 8677,
      "ĠSociety": 8678,
      "cluding": 8679,
      "Sim": 8680,
      "Ġpens": 8681,
      "Ġactive": 8682,
      "Ġhorse": 8683,
      "Ġheight": 8684,
      "ierten": 8685,
      "Ġvirt": 8686,
      "Ġfeet": 8687,
      "Ġresponsibility": 8688,
      "see": 8689,
      "ĠDiameter": 8690,
      "ĠStadt": 8691,
      "ĠTan": 8692,
      "coln": 8693,
      "Ġeffort": 8694,
      "ĠWorking": 8695,
      "ĠSar": 8696,
      "ĠGPS": 8697,
      "Ġevil": 8698,
      "Ġbeste": 8699,
      "undes": 8700,
      "Ġlistings": 8701,
      "Ġawesome": 8702,
      "Gold": 8703,
      "ĠBlouse": 8704,
      "ichen": 8705,
      "Sur": 8706,
      "leman": 8707,
      "Ġdual": 8708,
      "Ġintel": 8709,
      "ĠâĢ¢": 8710,
      "Ġmolto": 8711,
      "Ġfi": 8712,
      "care": 8713,
      "ĠKir": 8714,
      "arning": 8715,
      "ĠRalph": 8716,
      "Ġdiagn": 8717,
      "Ġsans": 8718,
      "Includes": 8719,
      "Ġsulla": 8720,
      "BB": 8721,
      "ĠGebundene": 8722,
      "Ġdiscipl": 8723,
      "Ġmuy": 8724,
      "Ġok": 8725,
      "Ġol": 8726,
      "ĠBuy": 8727,
      "michael": 8728,
      "Ġvoll": 8729,
      "Ġapplied": 8730,
      "Ġharm": 8731,
      "ELS": 8732,
      "Ġprompt": 8733,
      "Ġextremely": 8734,
      "Ġ**": 8735,
      "ĠLabel": 8736,
      "original": 8737,
      "ĠGEN": 8738,
      "ĠMethod": 8739,
      "opher": 8740,
      "Ġchanging": 8741,
      "ingly": 8742,
      "fred": 8743,
      "Ġselection": 8744,
      "ĠDyn": 8745,
      "Ġbowl": 8746,
      "ĠPsych": 8747,
      "umbia": 8748,
      "Ġclothing": 8749,
      "eden": 8750,
      "redients": 8751,
      "arium": 8752,
      "Ġenvironmental": 8753,
      "chester": 8754,
      "ols": 8755,
      "ĠPlush": 8756,
      "parent": 8757,
      "ĠEvery": 8758,
      "ktop": 8759,
      "ugo": 8760,
      "Ġnous": 8761,
      "Ġtshirt": 8762,
      "het": 8763,
      "Ġgauge": 8764,
      "asten": 8765,
      "chÃ©": 8766,
      "Ġfantastic": 8767,
      "Ġpatrim": 8768,
      "Ġcreative": 8769,
      "Ġbrit": 8770,
      "fekt": 8771,
      "ĠBarb": 8772,
      "Ġ68": 8773,
      "ĠSTE": 8774,
      "aders": 8775,
      "Works": 8776,
      "this": 8777,
      "Ġprotector": 8778,
      "topps": 8779,
      "feld": 8780,
      "HO": 8781,
      "uary": 8782,
      "ulator": 8783,
      "orial": 8784,
      "Ġfat": 8785,
      "ĠUnit": 8786,
      "Ġnum": 8787,
      "ANCE": 8788,
      "Ġrat": 8789,
      "Ġpockets": 8790,
      "ĠStereo": 8791,
      "weis": 8792,
      "Ġeight": 8793,
      "Ac": 8794,
      "atta": 8795,
      "Ġvehicles": 8796,
      "Ġfilled": 8797,
      "km": 8798,
      "ĠAp": 8799,
      "Ġtrib": 8800,
      "Ġhost": 8801,
      "oi": 8802,
      "Ġconstit": 8803,
      "Ġsolution": 8804,
      "ĠNorm": 8805,
      "Womens": 8806,
      "kon": 8807,
      "mos": 8808,
      "Ġinsights": 8809,
      "ĠHoch": 8810,
      "avan": 8811,
      "ĠDial": 8812,
      "Ġdecades": 8813,
      "SR": 8814,
      "ĠPUR": 8815,
      "ilton": 8816,
      "Sil": 8817,
      "ĠPE": 8818,
      "ĠFur": 8819,
      "ĠSN": 8820,
      "ĠTested": 8821,
      "Ġsources": 8822,
      "Ġkl": 8823,
      "Ġelements": 8824,
      "ĠQuick": 8825,
      "Ġ1200": 8826,
      "ferenz": 8827,
      "Ġmel": 8828,
      "ĠIce": 8829,
      "Ġ97": 8830,
      "ĠCountry": 8831,
      "ĠLT": 8832,
      "ĠSilicone": 8833,
      "Ġappar": 8834,
      "Ġsterling": 8835,
      "ĠDevelop": 8836,
      "uent": 8837,
      "Ġtap": 8838,
      "ĠFr": 8839,
      "Ġmerc": 8840,
      "ĠAV": 8841,
      "sea": 8842,
      "Ġkeeps": 8843,
      "Ġweb": 8844,
      "ounge": 8845,
      "Ġmotorcycle": 8846,
      "wau": 8847,
      "oston": 8848,
      "ĠtrÃ¨s": 8849,
      "ĠUSED": 8850,
      "Was": 8851,
      "Ġnumbers": 8852,
      "Ġformat": 8853,
      "sub": 8854,
      "Ġthread": 8855,
      "thlete": 8856,
      "alla": 8857,
      "Ġemph": 8858,
      "ders": 8859,
      "Ġtrab": 8860,
      "ĠChair": 8861,
      "Ġtub": 8862,
      "Ġprices": 8863,
      "Ġreality": 8864,
      "Ġdisappoint": 8865,
      "ĠWin": 8866,
      "ĠUt": 8867,
      "ĠHill": 8868,
      "Ġmanif": 8869,
      "Ġdecided": 8870,
      "ĠRack": 8871,
      "Ġgre": 8872,
      "Ġprinted": 8873,
      "Ġaussi": 8874,
      "Beautiful": 8875,
      "International": 8876,
      "ango": 8877,
      "ĠCentury": 8878,
      "acter": 8879,
      "yson": 8880,
      "Ġsizes": 8881,
      "Case": 8882,
      "ĠOber": 8883,
      "opard": 8884,
      "Ġverb": 8885,
      "ĠBrass": 8886,
      "Ġsituation": 8887,
      "Mer": 8888,
      "ulule": 8889,
      "Ġurban": 8890,
      "isches": 8891,
      "ĠUk": 8892,
      "ĠMiche": 8893,
      "ĠnÃ©": 8894,
      "eeignet": 8895,
      "Ġstated": 8896,
      "ĠÃ©l": 8897,
      "del": 8898,
      "Ġ66": 8899,
      "ĠSecurity": 8900,
      "Ġdescribes": 8901,
      "Ġtwenty": 8902,
      "ĠCM": 8903,
      "Ġxbox": 8904,
      "umpsuit": 8905,
      "Ġplayers": 8906,
      "1995": 8907,
      "please": 8908,
      "ipad": 8909,
      "gni": 8910,
      "Ġallen": 8911,
      "metal": 8912,
      "ĠEmbro": 8913,
      "Ġjohn": 8914,
      "Ġpartir": 8915,
      "ululemon": 8916,
      "ĠPearl": 8917,
      "ansion": 8918,
      "ĠMovie": 8919,
      "loss": 8920,
      "ichten": 8921,
      "Ġpays": 8922,
      "Disney": 8923,
      "Ġplates": 8924,
      "ibl": 8925,
      "issance": 8926,
      "ĠMotorcycle": 8927,
      "auc": 8928,
      "ĠCOLLECT": 8929,
      "Ġnos": 8930,
      "ĠHuman": 8931,
      "celain": 8932,
      "ĠPullover": 8933,
      "estra": 8934,
      "Ã¼ssel": 8935,
      "ĠSquare": 8936,
      "ĠIf": 8937,
      "320": 8938,
      "Ġents": 8939,
      "actor": 8940,
      "OND": 8941,
      "stract": 8942,
      "ĠGal": 8943,
      "ĠKat": 8944,
      "Ġregion": 8945,
      "ĠEau": 8946,
      "Fits": 8947,
      "waukee": 8948,
      "enomen": 8949,
      "ĠKomp": 8950,
      "Ġcleaning": 8951,
      "outer": 8952,
      "Ġexpand": 8953,
      "ĠTaylor": 8954,
      "Ġpush": 8955,
      "Ġnelle": 8956,
      "oren": 8957,
      "fast": 8958,
      "Ġvoc": 8959,
      "ĠBell": 8960,
      "Ġfabricant": 8961,
      "thur": 8962,
      "Ġreleased": 8963,
      "Ġarrive": 8964,
      "Ġhub": 8965,
      "quis": 8966,
      "inosa": 8967,
      "ĠGlobal": 8968,
      "schn": 8969,
      "ĠLeder": 8970,
      "christmas": 8971,
      "ĠUV": 8972,
      "ĠBattle": 8973,
      "Â¿": 8974,
      "abet": 8975,
      "III": 8976,
      "Engine": 8977,
      "Ġmention": 8978,
      "ĠProg": 8979,
      "etten": 8980,
      "ĠMouse": 8981,
      "ĠÃ©galement": 8982,
      "AUT": 8983,
      "Ġturned": 8984,
      "ĠÃľber": 8985,
      "ĠFishing": 8986,
      "170": 8987,
      "eten": 8988,
      "Back": 8989,
      "golf": 8990,
      "ĠFant": 8991,
      "ĠAre": 8992,
      "icle": 8993,
      "hell": 8994,
      "Ġfemale": 8995,
      "Ġdreams": 8996,
      "asters": 8997,
      "Ġhook": 8998,
      "izi": 8999,
      "Ġmercedes": 9000,
      "Nice": 9001,
      "ĠÃ¶": 9002,
      "Ġrug": 9003,
      "VEL": 9004,
      "Ġgoal": 9005,
      "Ġidentity": 9006,
      "Ġstress": 9007,
      "ĠprÃ©": 9008,
      "âĢ¦": 9009,
      "Ġenem": 9010,
      "ĠBowman": 9011,
      "DU": 9012,
      "Ġtrade": 9013,
      "ĠLab": 9014,
      "harley": 9015,
      "ugioh": 9016,
      "acia": 9017,
      "ÃŁer": 9018,
      "Ġtempo": 9019,
      "cop": 9020,
      "ĠBass": 9021,
      "ĠCreat": 9022,
      "Ġheadlight": 9023,
      "Ġaddresses": 9024,
      "eler": 9025,
      "ĠBUY": 9026,
      "ĠBerlin": 9027,
      "ĠChicago": 9028,
      "Ġspot": 9029,
      "Ġunc": 9030,
      "lasse": 9031,
      "aks": 9032,
      "cessor": 9033,
      "SD": 9034,
      "ĠAst": 9035,
      "Ġaller": 9036,
      "Ġlinen": 9037,
      "ĠHalloween": 9038,
      "quin": 9039,
      "Ġsuggest": 9040,
      "zzo": 9041,
      "Ġconsum": 9042,
      "vit": 9043,
      "aze": 9044,
      "ĠSpeaker": 9045,
      "Mark": 9046,
      "Ġgloves": 9047,
      "CED": 9048,
      "ARK": 9049,
      "CI": 9050,
      "yles": 9051,
      "ettes": 9052,
      "Ġemotional": 9053,
      "âĹ": 9054,
      "Ger": 9055,
      "ĠJud": 9056,
      "Band": 9057,
      "Ġfields": 9058,
      "mobil": 9059,
      "Ġainsi": 9060,
      "Ġdisney": 9061,
      "assenger": 9062,
      "ĠAntique": 9063,
      "ĠSea": 9064,
      "inson": 9065,
      "Ġfoll": 9066,
      "track": 9067,
      "Ġexchange": 9068,
      "voir": 9069,
      "uego": 9070,
      "lers": 9071,
      "Ġsecrets": 9072,
      "apph": 9073,
      "Ġmillion": 9074,
      "ĠStraight": 9075,
      "ĠBlock": 9076,
      "ĠUpper": 9077,
      "ĠDays": 9078,
      "Mileage": 9079,
      "material": 9080,
      "ersonal": 9081,
      "Ġproduced": 9082,
      "front": 9083,
      "ĠApril": 9084,
      "ivamente": 9085,
      "Ġod": 9086,
      "ebru": 9087,
      "Ã¼d": 9088,
      "worth": 9089,
      "ĠMother": 9090,
      "ĠWal": 9091,
      "Ġpoi": 9092,
      "atching": 9093,
      "ĠSIGN": 9094,
      "Ġaccessible": 9095,
      "Ġdunk": 9096,
      "cur": 9097,
      "ĠCher": 9098,
      "Ġoem": 9099,
      "Ġcollabor": 9100,
      "Ġexplains": 9101,
      "orgeous": 9102,
      "ĠTon": 9103,
      "Ġcompar": 9104,
      "otti": 9105,
      "ĠMagazine": 9106,
      "ĠJohnson": 9107,
      "Ġpure": 9108,
      "ĠHaus": 9109,
      "bew": 9110,
      "ATED": 9111,
      "ĠWho": 9112,
      "Ġnord": 9113,
      "Ã¤rk": 9114,
      "ĠFamil": 9115,
      "ivel": 9116,
      "Ġthorough": 9117,
      "low": 9118,
      "Ġgave": 9119,
      "Ġ76": 9120,
      "Ġmember": 9121,
      "ioneer": 9122,
      "ĠOur": 9123,
      "ĠCourt": 9124,
      "Ġ88": 9125,
      "Ins": 9126,
      "Ġnost": 9127,
      "Ã¼nst": 9128,
      "uti": 9129,
      "Ġcompact": 9130,
      "Ġya": 9131,
      "Ġtight": 9132,
      "ĠMaria": 9133,
      "ĠStaff": 9134,
      "ĠTurbo": 9135,
      "erse": 9136,
      "Ġornament": 9137,
      "ocolate": 9138,
      "held": 9139,
      "ulk": 9140,
      "auft": 9141,
      "WH": 9142,
      "ĠField": 9143,
      "amo": 9144,
      "Ġsop": 9145,
      "ĠGaming": 9146,
      "ĠaprÃ¨s": 9147,
      "Ġfelt": 9148,
      "Ġbron": 9149,
      "hab": 9150,
      "Ġremov": 9151,
      "Ġpolic": 9152,
      "ĠHolid": 9153,
      "Silver": 9154,
      "Ġbrief": 9155,
      "ĠUnd": 9156,
      "CEL": 9157,
      "iglia": 9158,
      "itors": 9159,
      "Ġblazer": 9160,
      "aru": 9161,
      "ĠWindow": 9162,
      "Ġdecision": 9163,
      "ilfiger": 9164,
      "eman": 9165,
      "dell": 9166,
      "obra": 9167,
      "Ġinnerhalb": 9168,
      "Custom": 9169,
      "ĠMagn": 9170,
      "ĠRegular": 9171,
      "Ġlovely": 9172,
      "Ġhatte": 9173,
      "Ġdistin": 9174,
      "urdy": 9175,
      "ĠExclusive": 9176,
      "unior": 9177,
      "izar": 9178,
      "Ġrelevant": 9179,
      "ji": 9180,
      "LO": 9181,
      "Ġmunicip": 9182,
      "Ġblau": 9183,
      "Ġtempor": 9184,
      "adores": 9185,
      "Ġfino": 9186,
      "ilo": 9187,
      "ĠFound": 9188,
      "endar": 9189,
      "Cu": 9190,
      "ĠRecords": 9191,
      "olare": 9192,
      "pass": 9193,
      "Ġham": 9194,
      "Ġlabor": 9195,
      "Ġcustoms": 9196,
      "apon": 9197,
      "ĠcittÃł": 9198,
      "othe": 9199,
      "Why": 9200,
      "ĠVent": 9201,
      "Ġexc": 9202,
      "Ġschon": 9203,
      "Ġ2500": 9204,
      "ĠTun": 9205,
      "ĠoÃ¹": 9206,
      "high": 9207,
      "War": 9208,
      "reland": 9209,
      "Ġware": 9210,
      "ĠWilliams": 9211,
      "Ġexciting": 9212,
      "ĠConne": 9213,
      "Ġcateg": 9214,
      "Ġfitted": 9215,
      "ĠXX": 9216,
      "Ġrig": 9217,
      "zzles": 9218,
      "avis": 9219,
      "stellung": 9220,
      "Ġrecords": 9221,
      "coat": 9222,
      "isi": 9223,
      "Ġalthough": 9224,
      "ĠChevrolet": 9225,
      "ĠÃ©tait": 9226,
      "Ġsunglasses": 9227,
      "kswagen": 9228,
      "ĠDHL": 9229,
      "Ġwrap": 9230,
      "lagen": 9231,
      "raub": 9232,
      "Ġvenne": 9233,
      "Blu": 9234,
      "ĠAudi": 9235,
      "haps": 9236,
      "Ġlinks": 9237,
      "ĠTreat": 9238,
      "ĠAtl": 9239,
      "chel": 9240,
      "Ġoccup": 9241,
      "Ġganz": 9242,
      "Ġrice": 9243,
      "ĠStories": 9244,
      "Ġteacher": 9245,
      "ĠTexas": 9246,
      "from": 9247,
      "aptain": 9248,
      "Cert": 9249,
      "Ġpads": 9250,
      "Ġ1940": 9251,
      "OTO": 9252,
      "ĠFIT": 9253,
      "Ġmathemat": 9254,
      "1990": 9255,
      "uitton": 9256,
      "Ġvide": 9257,
      "dep": 9258,
      "fle": 9259,
      "sters": 9260,
      "ĠSTR": 9261,
      "GrÃ¶ÃŁe": 9262,
      "tim": 9263,
      "VW": 9264,
      "undai": 9265,
      "fest": 9266,
      "ĠKingdom": 9267,
      "Ġshell": 9268,
      "Ġ170": 9269,
      "ÃĦ": 9270,
      "Ġconservation": 9271,
      "arios": 9272,
      "ĠGrade": 9273,
      "acion": 9274,
      "anted": 9275,
      "IME": 9276,
      "mir": 9277,
      "Ġgiorn": 9278,
      "Ġvita": 9279,
      "ĠRefin": 9280,
      "arsi": 9281,
      "ĠKIT": 9282,
      "Ġhear": 9283,
      "Ġnearly": 9284,
      "oho": 9285,
      "iore": 9286,
      "Ġconvert": 9287,
      "Ġplot": 9288,
      "Ġfleece": 9289,
      "Ġmeasures": 9290,
      "ĠLast": 9291,
      "eras": 9292,
      "ĠFach": 9293,
      "Ġmise": 9294,
      "adian": 9295,
      "ICA": 9296,
      "Ġpremium": 9297,
      "Ġciudad": 9298,
      "ĠNap": 9299,
      "ĠCapacity": 9300,
      "ĠProdu": 9301,
      "ffic": 9302,
      "onders": 9303,
      "ongs": 9304,
      "ĠCivil": 9305,
      "ĠCell": 9306,
      "Ġhell": 9307,
      "ativa": 9308,
      "Ġcutting": 9309,
      "Ġfees": 9310,
      "aise": 9311,
      "ĠSem": 9312,
      "ĠLew": 9313,
      "ippers": 9314,
      "Ġorient": 9315,
      "Ġsamsung": 9316,
      "Ġfolg": 9317,
      "Ġsolar": 9318,
      "550": 9319,
      "Ass": 9320,
      "Ġgleich": 9321,
      "Ġleaves": 9322,
      "ĠWas": 9323,
      "Ġincred": 9324,
      "ĠPAY": 9325,
      "ĠrÃ©s": 9326,
      "Ġmayor": 9327,
      "ĠSche": 9328,
      "ĠJim": 9329,
      "ĠResearch": 9330,
      "Ġmotiv": 9331,
      "wÃ¤": 9332,
      "Ġconflict": 9333,
      "Ã¯": 9334,
      "Ġhem": 9335,
      "Ã£": 9336,
      "Dep": 9337,
      "Ġcollar": 9338,
      "mpo": 9339,
      "Ġdiameter": 9340,
      "Ġcalcul": 9341,
      "naments": 9342,
      "eros": 9343,
      "Ġteen": 9344,
      "cause": 9345,
      "aya": 9346,
      "Ġaltri": 9347,
      "Ġcollege": 9348,
      "rior": 9349,
      "ĠFort": 9350,
      "acco": 9351,
      "ĠMarch": 9352,
      "isis": 9353,
      "Ġwealth": 9354,
      "ĠCleaner": 9355,
      "Ġyouth": 9356,
      "Ġflower": 9357,
      "Ġcoverage": 9358,
      "armin": 9359,
      "ĠXR": 9360,
      "Ġartists": 9361,
      "Ġconsist": 9362,
      "Ġpackaged": 9363,
      "enser": 9364,
      "Ġsister": 9365,
      "ĠJon": 9366,
      "Ġ57": 9367,
      "rieben": 9368,
      "Body": 9369,
      "game": 9370,
      "ogg": 9371,
      "ĠAsh": 9372,
      "Ġinstalled": 9373,
      "ĠSticker": 9374,
      "ĠIss": 9375,
      "Ġsweatshirt": 9376,
      "ĠLat": 9377,
      "Ġjedoch": 9378,
      "Ġpeut": 9379,
      "230": 9380,
      "ĠKN": 9381,
      "grams": 9382,
      "adio": 9383,
      "igi": 9384,
      "ĠEs": 9385,
      "anth": 9386,
      "EUR": 9387,
      "teile": 9388,
      "helm": 9389,
      "Ġpant": 9390,
      "Ġhandling": 9391,
      "Ã¤ge": 9392,
      "Ġcontra": 9393,
      "Plus": 9394,
      "Ġmarriage": 9395,
      "Ġtiene": 9396,
      "Ġleggings": 9397,
      "Ġ96": 9398,
      "ĠSeptember": 9399,
[...]
